{
  "version": "1.0",
  "truncation": null,
  "padding": null,
  "added_tokens": [
    {
      "id": 0,
      "content": "[PAD]",
      "single_word": false,
      "lstrip": false,
      "rstrip": false,
      "normalized": false,
      "special": true
    },
    {
      "id": 1,
      "content": "[EOS]",
      "single_word": false,
      "lstrip": false,
      "rstrip": false,
      "normalized": false,
      "special": true
    },
    {
      "id": 2,
      "content": "[SEP]",
      "single_word": false,
      "lstrip": false,
      "rstrip": false,
      "normalized": false,
      "special": true
    },
    {
      "id": 3,
      "content": "[BOS]",
      "single_word": false,
      "lstrip": false,
      "rstrip": false,
      "normalized": false,
      "special": true
    },
    {
      "id": 4,
      "content": "[CLS]",
      "single_word": false,
      "lstrip": false,
      "rstrip": false,
      "normalized": false,
      "special": true
    },
    {
      "id": 5,
      "content": "[MASK]",
      "single_word": false,
      "lstrip": false,
      "rstrip": false,
      "normalized": false,
      "special": true
    },
    {
      "id": 6,
      "content": "[UNK]",
      "single_word": false,
      "lstrip": false,
      "rstrip": false,
      "normalized": false,
      "special": true
    },
    {
      "id": 60928,
      "content": "\t",
      "single_word": false,
      "lstrip": false,
      "rstrip": false,
      "normalized": true,
      "special": false
    },
    {
      "id": 60929,
      "content": "\n",
      "single_word": false,
      "lstrip": false,
      "rstrip": false,
      "normalized": true,
      "special": false
    }
  ],
  "normalizer": null,
  "pre_tokenizer": {
    "type": "ByteLevel",
    "add_prefix_space": false,
    "trim_offsets": true,
    "use_regex": true
  },
  "post_processor": {
    "type": "ByteLevel",
    "add_prefix_space": true,
    "trim_offsets": false,
    "use_regex": true
  },
  "decoder": {
    "type": "ByteLevel",
    "add_prefix_space": true,
    "trim_offsets": true,
    "use_regex": true
  },
  "model": {
    "type": "BPE",
    "dropout": null,
    "unk_token": null,
    "continuing_subword_prefix": null,
    "end_of_word_suffix": null,
    "fuse_unk": false,
    "byte_fallback": false,
    "vocab": {
      "[PAD]": 0,
      "[EOS]": 1,
      "[SEP]": 2,
      "[BOS]": 3,
      "[CLS]": 4,
      "[MASK]": 5,
      "[UNK]": 6,
      "!": 7,
      "\"": 8,
      "#": 9,
      "$": 10,
      "%": 11,
      "&": 12,
      "'": 13,
      "(": 14,
      ")": 15,
      "*": 16,
      "+": 17,
      ",": 18,
      "-": 19,
      ".": 20,
      "/": 21,
      "0": 22,
      "1": 23,
      "2": 24,
      "3": 25,
      "4": 26,
      "5": 27,
      "6": 28,
      "7": 29,
      "8": 30,
      "9": 31,
      ":": 32,
      ";": 33,
      "<": 34,
      "=": 35,
      ">": 36,
      "?": 37,
      "@": 38,
      "A": 39,
      "B": 40,
      "C": 41,
      "D": 42,
      "E": 43,
      "F": 44,
      "G": 45,
      "H": 46,
      "I": 47,
      "J": 48,
      "K": 49,
      "L": 50,
      "M": 51,
      "N": 52,
      "O": 53,
      "P": 54,
      "Q": 55,
      "R": 56,
      "S": 57,
      "T": 58,
      "U": 59,
      "V": 60,
      "W": 61,
      "X": 62,
      "Y": 63,
      "Z": 64,
      "[": 65,
      "\\": 66,
      "]": 67,
      "^": 68,
      "_": 69,
      "`": 70,
      "a": 71,
      "b": 72,
      "c": 73,
      "d": 74,
      "e": 75,
      "f": 76,
      "g": 77,
      "h": 78,
      "i": 79,
      "j": 80,
      "k": 81,
      "l": 82,
      "m": 83,
      "n": 84,
      "o": 85,
      "p": 86,
      "q": 87,
      "r": 88,
      "s": 89,
      "t": 90,
      "u": 91,
      "v": 92,
      "w": 93,
      "x": 94,
      "y": 95,
      "z": 96,
      "{": 97,
      "|": 98,
      "}": 99,
      "~": 100,
      "¡": 101,
      "¢": 102,
      "£": 103,
      "¤": 104,
      "¥": 105,
      "¦": 106,
      "§": 107,
      "¨": 108,
      "©": 109,
      "ª": 110,
      "«": 111,
      "¬": 112,
      "®": 113,
      "¯": 114,
      "°": 115,
      "±": 116,
      "²": 117,
      "³": 118,
      "´": 119,
      "µ": 120,
      "¶": 121,
      "·": 122,
      "¸": 123,
      "¹": 124,
      "º": 125,
      "»": 126,
      "¼": 127,
      "½": 128,
      "¾": 129,
      "¿": 130,
      "Â": 131,
      "Ã": 132,
      "Ä": 133,
      "Å": 134,
      "Æ": 135,
      "Ç": 136,
      "È": 137,
      "É": 138,
      "Ê": 139,
      "Ë": 140,
      "Ì": 141,
      "Í": 142,
      "Î": 143,
      "Ï": 144,
      "Ð": 145,
      "Ñ": 146,
      "Ò": 147,
      "Ó": 148,
      "Ô": 149,
      "Õ": 150,
      "Ö": 151,
      "×": 152,
      "Ø": 153,
      "Ù": 154,
      "Ú": 155,
      "Û": 156,
      "Ü": 157,
      "Ý": 158,
      "Þ": 159,
      "ß": 160,
      "à": 161,
      "á": 162,
      "â": 163,
      "ã": 164,
      "ä": 165,
      "å": 166,
      "æ": 167,
      "ç": 168,
      "è": 169,
      "é": 170,
      "ê": 171,
      "ë": 172,
      "ì": 173,
      "í": 174,
      "î": 175,
      "ï": 176,
      "ð": 177,
      "ñ": 178,
      "ò": 179,
      "ó": 180,
      "ô": 181,
      "Ā": 182,
      "ā": 183,
      "Ă": 184,
      "ă": 185,
      "Ą": 186,
      "ą": 187,
      "Ĉ": 188,
      "ĉ": 189,
      "Ċ": 190,
      "ċ": 191,
      "Č": 192,
      "Ď": 193,
      "ď": 194,
      "Đ": 195,
      "đ": 196,
      "Ē": 197,
      "ē": 198,
      "Ĕ": 199,
      "ĕ": 200,
      "Ė": 201,
      "ė": 202,
      "Ę": 203,
      "ę": 204,
      "Ě": 205,
      "ě": 206,
      "Ĝ": 207,
      "ĝ": 208,
      "Ğ": 209,
      "ğ": 210,
      "Ġ": 211,
      "ġ": 212,
      "Ģ": 213,
      "ģ": 214,
      "Ĥ": 215,
      "ĥ": 216,
      "Ħ": 217,
      "ħ": 218,
      "Ĩ": 219,
      "ĩ": 220,
      "Ī": 221,
      "ī": 222,
      "Ĭ": 223,
      "ĭ": 224,
      "Į": 225,
      "į": 226,
      "İ": 227,
      "ı": 228,
      "Ĳ": 229,
      "ĳ": 230,
      "Ĵ": 231,
      "ĵ": 232,
      "Ķ": 233,
      "ķ": 234,
      "ĸ": 235,
      "Ĺ": 236,
      "ĺ": 237,
      "Ļ": 238,
      "ļ": 239,
      "Ľ": 240,
      "ľ": 241,
      "Ŀ": 242,
      "ŀ": 243,
      "Ł": 244,
      "ł": 245,
      "Ń": 246,
      "ï¼": 247,
      "ä¸": 248,
      "ï¼Į": 249,
      "ãĢ": 250,
      "çļ": 251,
      "çļĦ": 252,
      "äº": 253,
      "æľ": 254,
      "åı": 255,
      "ãĢĤ": 256,
      "åħ": 257,
      "Ġt": 258,
      "ä»": 259,
      "he": 260,
      "in": 261,
      "Ġa": 262,
      "å¤": 263,
      "å®": 264,
      "åĪ": 265,
      "er": 266,
      "ãĢģ": 267,
      "åľ": 268,
      "ä½": 269,
      "è¿": 270,
      "çĶ": 271,
      "åĲ": 272,
      "on": 273,
      "åĬ": 274,
      "æĺ": 275,
      "Ġthe": 276,
      "ç»": 277,
      "å¹": 278,
      "åĽ": 279,
      "æĪ": 280,
      "æĸ": 281,
      "âĢ": 282,
      "æĹ": 283,
      "ĊĊ": 284,
      "or": 285,
      "an": 286,
      "ä¹": 287,
      "ä¼": 288,
      "ä¸Ģ": 289,
      "en": 290,
      "è®": 291,
      "å°": 292,
      "es": 293,
      "åį": 294,
      "ed": 295,
      "è¯": 296,
      "at": 297,
      "åŃ": 298,
      "æĺ¯": 299,
      "åľ¨": 300,
      "is": 301,
      "Ġo": 302,
      "ar": 303,
      "Ġs": 304,
      "å¸": 305,
      "al": 306,
      "æĿ": 307,
      "å·": 308,
      "åĮ": 309,
      "æľī": 310,
      "Ġw": 311,
      "éĩ": 312,
      "åº": 313,
      "it": 314,
      "äºº": 315,
      "å¼": 316,
      "ä¸Ń": 317,
      "Ġof": 318,
      "æī": 319,
      "è¡": 320,
      "éĢ": 321,
      "nd": 322,
      "åĨ": 323,
      "Ġin": 324,
      "ä¸º": 325,
      "Ġf": 326,
      "re": 327,
      "Ġc": 328,
      "åĴ": 329,
      "å¹´": 330,
      "åĩ": 331,
      "èĢ": 332,
      "å¾": 333,
      "çĽ": 334,
      "ä¸į": 335,
      "æķ": 336,
      "åĴĮ": 337,
      "äºĨ": 338,
      "ic": 339,
      "å±": 340,
      "å¯": 341,
      "ç§": 342,
      "Ġb": 343,
      "æĬ": 344,
      "è´": 345,
      "å¤§": 346,
      "as": 347,
      "åĽ½": 348,
      "æł": 349,
      "Ġp": 350,
      "20": 351,
      "ĥ½": 352,
      "èµ": 353,
      "è§": 354,
      "ing": 355,
      "ä¸ļ": 356,
      "çī": 357,
      "çİ": 358,
      "Ġand": 359,
      "éĻ": 360,
      "æ°": 361,
      "æĶ": 362,
      "ion": 363,
      "ä»¥": 364,
      "ro": 365,
      "æĢ": 366,
      "çº": 367,
      "çĶŁ": 368,
      "åİ": 369,
      "åŃ¦": 370,
      "å¥": 371,
      "å½": 372,
      "le": 373,
      "æŃ": 374,
      "èĩ": 375,
      "ĠS": 376,
      "åıĳ": 377,
      "æ³": 378,
      "ä¸Ĭ": 379,
      "çĶ¨": 380,
      "ä¿": 381,
      "éĹ": 382,
      "ä¼ļ": 383,
      "å¿": 384,
      "æµ": 385,
      "çĲ": 386,
      "åĳ": 387,
      "çŃ": 388,
      "éĿ": 389,
      "æĹ¶": 390,
      "ä¸ª": 391,
      "æİ": 392,
      "âĢľ": 393,
      "Ġto": 394,
      "âĢĿ": 395,
      "Ġm": 396,
      "è¡Į": 397,
      "19": 398,
      "äºİ": 399,
      "Ġd": 400,
      "ĠC": 401,
      "¦ģ": 402,
      "ä½ľ": 403,
      "ou": 404,
      "èĥ½": 405,
      "å·¥": 406,
      "è¦ģ": 407,
      "æĪĲ": 408,
      "ĠA": 409,
      "æŀ": 410,
      "il": 411,
      "ĊĊĊ": 412,
      "åĵ": 413,
      "ent": 414,
      "æ²": 415,
      "æĭ": 416,
      "è¾": 417,
      "è½": 418,
      "åŁ": 419,
      "æ¯": 420,
      "åħ¬": 421,
      "é¢": 422,
      "è¿Ļ": 423,
      "åľ°": 424,
      "ĠT": 425,
      "åĪ°": 426,
      "åĩº": 427,
      "Ġh": 428,
      "åı¯": 429,
      "æĿ¥": 430,
      "å®¶": 431,
      "å¯¹": 432,
      "éĺ": 433,
      "åī": 434,
      "ç«": 435,
      "am": 436,
      "ĠM": 437,
      "æ±": 438,
      "æĪĳ": 439,
      "æĮ": 440,
      "el": 441,
      "äº§": 442,
      "æ¸": 443,
      "çľ": 444,
      "om": 445,
      "çĲĨ": 446,
      "æĹ¥": 447,
      "ol": 448,
      "åĪĨ": 449,
      "é«": 450,
      "å¤ļ": 451,
      "é«ĺ": 452,
      "æĸ¹": 453,
      "ç½": 454,
      "st": 455,
      "ä¾": 456,
      "ç®": 457,
      "æĸ°": 458,
      "çŃī": 459,
      "éĥ": 460,
      "æĥ": 461,
      "åĬ¨": 462,
      "ï¼ī": 463,
      "æľĪ": 464,
      "ï¼Ī": 465,
      "ä¸İ": 466,
      "å¸Ĥ": 467,
      "Ġ(": 468,
      "æ´": 469,
      "åĲİ": 470,
      "éķ": 471,
      "è¿Ľ": 472,
      "ç»ı": 473,
      "ĠB": 474,
      "ac": 475,
      "ur": 476,
      "èĩª": 477,
      "åĮĸ": 478,
      "æ¬": 479,
      "ä¸ĭ": 480,
      "æĦ": 481,
      "åħ¨": 482,
      "ä»¬": 483,
      "æľº": 484,
      "è¿ĩ": 485,
      "çİ°": 486,
      "èĤ": 487,
      "å»": 488,
      "Ġl": 489,
      "åĲĪ": 490,
      "ä½ĵ": 491,
      "ĠP": 492,
      "ç¨": 493,
      "åĲĮ": 494,
      "éĥ¨": 495,
      "ad": 496,
      "æĽ": 497,
      "ä»ĸ": 498,
      "å¼Ģ": 499,
      "åĵģ": 500,
      "ä¹Ł": 501,
      "ï¼ļ": 502,
      "é¡": 503,
      "éģ": 504,
      "åĬĽ": 505,
      "et": 506,
      "æı": 507,
      "æľ¬": 508,
      "ec": 509,
      "ç¬": 510,
      "å®ŀ": 511,
      "åħ¶": 512,
      "ä¸»": 513,
      "å¦": 514,
      "éĿ¢": 515,
      "åıĬ": 516,
      "iv": 517,
      "ä¹ĭ": 518,
      "è®¾": 519,
      "æ³ķ": 520,
      "çĶµ": 521,
      "å®ļ": 522,
      "èģ": 523,
      "ĠH": 524,
      "éĽ": 525,
      "ir": 526,
      "ers": 527,
      "æĢ§": 528,
      "ation": 529,
      "å»º": 530,
      "è·": 531,
      "å±ķ": 532,
      "åĮº": 533,
      "åĬł": 534,
      "Ġre": 535,
      "èĢĮ": 536,
      "ig": 537,
      "åģ": 538,
      "ĠI": 539,
      "éķ¿": 540,
      "åĬ¡": 541,
      "åº¦": 542,
      "å°±": 543,
      "Ġn": 544,
      "Ġwas": 545,
      "ç¤": 546,
      "id": 547,
      "èī": 548,
      "æį": 549,
      "ot": 550,
      "å¢": 551,
      "çĤ": 552,
      "æĻ": 553,
      "us": 554,
      "è¶": 555,
      "ĠR": 556,
      "é£": 557,
      "201": 558,
      "åīį": 559,
      "å¾Ĺ": 560,
      "éĢļ": 561,
      "ç¾": 562,
      "èĢħ": 563,
      "åľº": 564,
      "00": 565,
      "çŁ": 566,
      "Ġth": 567,
      "åħ³": 568,
      "éĩį": 569,
      "åĨħ": 570,
      "åĪ¶": 571,
      "æīĢ": 572,
      "æıĲ": 573,
      "Ġfor": 574,
      "ter": 575,
      "ay": 576,
      "em": 577,
      "å¿ĥ": 578,
      "èµĦ": 579,
      "åŃĲ": 580,
      "ĠD": 581,
      "å°Ĩ": 582,
      "åĿ": 583,
      "æ°´": 584,
      "ĠL": 585,
      "im": 586,
      "åı¸": 587,
      "Ġon": 588,
      "è°": 589,
      "ly": 590,
      "éĩı": 591,
      "æľĢ": 592,
      "æĸĩ": 593,
      "ä½į": 594,
      "Ġ19": 595,
      "çī©": 596,
      "ç³": 597,
      "Ġ1": 598,
      "çł": 599,
      "ch": 600,
      "ç¬¬": 601,
      "ĠF": 602,
      "éĹ´": 603,
      "ç®¡": 604,
      "åºĶ": 605,
      "æ¶": 606,
      "å°ı": 607,
      "çĻ": 608,
      "äºĭ": 609,
      "å§": 610,
      "çĽ®": 611,
      "ä¿Ŀ": 612,
      "ç©": 613,
      "Ġe": 614,
      "å¥½": 615,
      "ut": 616,
      "å¹¶": 617,
      "å¦Ĥ": 618,
      "Ġg": 619,
      "éļ": 620,
      "ĠG": 621,
      "ist": 622,
      "åĳĺ": 623,
      "èĬ": 624,
      "Ġis": 625,
      "èĲ": 626,
      "ç¨ĭ": 627,
      "éĥ½": 628,
      "åĲį": 629,
      "æķĻ": 630,
      "æľŁ": 631,
      "ãĢĭ": 632,
      "ãĢĬ": 633,
      "åĢ": 634,
      "åħ¬åı¸": 635,
      "è®¡": 636,
      "åħ¥": 637,
      "å¤ĸ": 638,
      "ç±": 639,
      "Ġas": 640,
      "ow": 641,
      "ĠN": 642,
      "un": 643,
      "ï¼Ľ": 644,
      "ç§į": 645,
      "æĬĢ": 646,
      "çĿ": 647,
      "æ¯Ķ": 648,
      "æķ°": 649,
      "å¤©": 650,
      "ç³»": 651,
      "éħ": 652,
      "çĽ¸": 653,
      "æŁ": 654,
      "å¹³": 655,
      "çķ": 656,
      "åĽł": 657,
      "th": 658,
      "ĠW": 659,
      "è¡¨": 660,
      "ith": 661,
      "éĶ": 662,
      "å½ĵ": 663,
      "éĩĳ": 664,
      "æľ¯": 665,
      "ĠThe": 666,
      "ct": 667,
      "éľ": 668,
      "ç§ĳ": 669,
      "æĽ´": 670,
      "ä¸ī": 671,
      "æģ": 672,
      "çĤ¹": 673,
      "ul": 674,
      "åĪ©": 675,
      "æĶ¿": 676,
      "her": 677,
      "and": 678,
      "å®ī": 679,
      "çī¹": 680,
      "è½¦": 681,
      "æ°ĳ": 682,
      "ç¾İ": 683,
      "æĥħ": 684,
      "ä¿¡": 685,
      "éģĵ": 686,
      "çĦ": 687,
      "Ġst": 688,
      "èĭ": 689,
      "Ġr": 690,
      "çĸ": 691,
      "å¼ı": 692,
      "ag": 693,
      "ç½ĳ": 694,
      "ä½¿": 695,
      "éĵ": 696,
      "ce": 697,
      "ĠE": 698,
      "çĥ": 699,
      "é¦": 700,
      "ä»İ": 701,
      "æ¬¡": 702,
      "æŃ¤": 703,
      "ĠJ": 704,
      "ä¸Ģä¸ª": 705,
      "ä¼ģ": 706,
      "ä»£": 707,
      "ç¡": 708,
      "è¢": 709,
      "æĪĸ": 710,
      "è¯´": 711,
      "ä¸ŃåĽ½": 712,
      "åŁº": 713,
      "um": 714,
      "åħĥ": 715,
      "Ġwith": 716,
      "è¿ĺ": 717,
      "çĶ±": 718,
      "éĩĮ": 719,
      "æĦı": 720,
      "ä¸ĵ": 721,
      "Ġby": 722,
      "æĺİ": 723,
      "Ġal": 724,
      "os": 725,
      "est": 726,
      "ä½Ĩ": 727,
      "æ´»": 728,
      "åķ": 729,
      "è´¨": 730,
      "ç¥": 731,
      "200": 732,
      "å£": 733,
      "èĪ": 734,
      "æ¡": 735,
      "æľį": 736,
      "ä¼ģä¸ļ": 737,
      "çĹ": 738,
      "ç´": 739,
      "æį®": 740,
      "ç²": 741,
      "å·¥ä½ľ": 742,
      "èµ·": 743,
      "op": 744,
      "æĹł": 745,
      "æĪĳä»¬": 746,
      "å¸¸": 747,
      "éĤ": 748,
      "ç¼": 749,
      "åıĳå±ķ": 750,
      "çĦ¶": 751,
      "éĻ¢": 752,
      "rom": 753,
      "åŀ": 754,
      "é¡¹": 755,
      "éĴ": 756,
      "æ·": 757,
      "åĲĦ": 758,
      "åı¯ä»¥": 759,
      "è¥": 760,
      "è§Ħ": 761,
      "æłĩ": 762,
      "çĿĢ": 763,
      "è¢«": 764,
      "ä»»": 765,
      "'s": 766,
      "æµ·": 767,
      "ç»Ł": 768,
      "è¥¿": 769,
      "å¾Ī": 770,
      "ver": 771,
      "Ġat": 772,
      "ri": 773,
      "æŃ£": 774,
      "è·¯": 775,
      "æŀľ": 776,
      "Ġbe": 777,
      "èį": 778,
      "èĩ³": 779,
      "æº": 780,
      "ä»¶": 781,
      "ain": 782,
      "èĥ": 783,
      "ç«ĭ": 784,
      "è¿Ĳ": 785,
      "åķĨ": 786,
      "äºĮ": 787,
      "çłĶ": 788,
      "æİ¥": 789,
      "èİ": 790,
      "ĠO": 791,
      "åĪĽ": 792,
      "å¤Ħ": 793,
      "æĮģ": 794,
      "é©": 795,
      "é£İ": 796,
      "äºĽ": 797,
      "ä¸ľ": 798,
      "åı°": 799,
      "oc": 800,
      "éĢł": 801,
      "äº¤": 802,
      "çģ": 803,
      "çĪ": 804,
      "æĬ¥": 805,
      "ç»ĵ": 806,
      "å¼º": 807,
      "çº¿": 808,
      "è§£": 809,
      "åįĹ": 810,
      "ä¸ĩ": 811,
      "æµģ": 812,
      "ç»Ħ": 813,
      "Ġwh": 814,
      "ap": 815,
      "å¢ŀ": 816,
      "åįķ": 817,
      "Ġan": 818,
      "å·²": 819,
      "è£": 820,
      "æł¼": 821,
      "æīĭ": 822,
      "ian": 823,
      "éľĢ": 824,
      "æĤ": 825,
      "çº§": 826,
      "Ġcon": 827,
      "âĢĵ": 828,
      "av": 829,
      "åħ·": 830,
      "èģĶ": 831,
      "æĢ»": 832,
      "éĹ¨": 833,
      "æ±Ĥ": 834,
      "å½±": 835,
      "éĽĨ": 836,
      "ĠK": 837,
      "ab": 838,
      "éª": 839,
      "æ°Ķ": 840,
      "çľģ": 841,
      "ess": 842,
      "åİŁ": 843,
      "åįģ": 844,
      "åŀĭ": 845,
      "åĮĹ": 846,
      "ä½ł": 847,
      "Ġfrom": 848,
      "Ġhe": 849,
      "çĲĥ": 850,
      "æĬĢæľ¯": 851,
      "æł¡": 852,
      "æĶ¶": 853,
      "åĲĳ": 854,
      "è¾¾": 855,
      "æĸ¯": 856,
      "od": 857,
      "é¢ĺ": 858,
      "å¯¼": 859,
      "çľĭ": 860,
      "æľįåĬ¡": 861,
      "åıĹ": 862,
      "åŁİ": 863,
      "æ»": 864,
      "ä¼ł": 865,
      "ia": 866,
      "ber": 867,
      "å¤ĩ": 868,
      "all": 869,
      "Ġv": 870,
      "ä¸¤": 871,
      "èº": 872,
      "åħ±": 873,
      "ç¦": 874,
      "ity": 875,
      "å±±": 876,
      "ä¾Ľ": 877,
      "ç¤º": 878,
      "Ġthat": 879,
      "æ¸¸": 880,
      "å¹¿": 881,
      "èī²": 882,
      "Ġ\"": 883,
      "10": 884,
      "èĮ": 885,
      "ies": 886,
      "èµĽ": 887,
      "if": 888,
      "åı£": 889,
      "å²": 890,
      "è¿Ľè¡Į": 891,
      "ĠU": 892,
      "ä¸ĸ": 893,
      "ç¤¾": 894,
      "art": 895,
      "èĤ²": 896,
      "åĸ": 897,
      "å¸ĥ": 898,
      "å¸Ī": 899,
      "çŁ¥": 900,
      "çİ¯": 901,
      "ç®¡çĲĨ": 902,
      "éĢī": 903,
      "åİ»": 904,
      "èº«": 905,
      "æĸĻ": 906,
      "Ġcom": 907,
      "æĦŁ": 908,
      "ate": 909,
      "ill": 910,
      "èĲ¥": 911,
      "è¯¥": 912,
      "æł·": 913,
      "Ġpro": 914,
      "åĻ": 915,
      "ç±»": 916,
      "åıĺ": 917,
      "ew": 918,
      "æ¼": 919,
      "æ²¡": 920,
      "æ£": 921,
      "up": 922,
      "èĦ": 923,
      "æºĲ": 924,
      "ä»·": 925,
      "éĹ®": 926,
      "æķĪ": 927,
      "åĽ¢": 928,
      "åĮ»": 929,
      "ard": 930,
      "åĶ": 931,
      "ort": 932,
      "Ġde": 933,
      "åģļ": 934,
      "äº§åĵģ": 935,
      "éĺŁ": 936,
      "æ²»": 937,
      "ud": 938,
      "æĪ·": 939,
      "å½¢": 940,
      "æĬķ": 941,
      "é¢Ĩ": 942,
      "è¯ģ": 943,
      "å°Ķ": 944,
      "åħĪ": 945,
      "ak": 946,
      "åĻ¨": 947,
      "æĶ¹": 948,
      "è®¤": 949,
      "ä¼ĺ": 950,
      "è°ĥ": 951,
      "æ®": 952,
      "èĬĤ": 953,
      "ub": 954,
      "ĠSt": 955,
      "è®©": 956,
      "æĥ³": 957,
      "æŀĦ": 958,
      "ip": 959,
      "åĩĨ": 960,
      "è´¹": 961,
      "Ġpl": 962,
      "ä¹¦": 963,
      "èĢĥ": 964,
      "é»": 965,
      "å°ĳ": 966,
      "å®Į": 967,
      "åĪ«": 968,
      "igh": 969,
      "æĮĩ": 970,
      "æİ¨": 971,
      "åĮħ": 972,
      "åıª": 973,
      "æ¯ı": 974,
      "çĽ´": 975,
      "å·±": 976,
      "æĪĺ": 977,
      "åıĤ": 978,
      "çĹħ": 979,
      "ä¹Ī": 980,
      "Ġit": 981,
      "ear": 982,
      "è§Ĩ": 983,
      "ç«Ļ": 984,
      "æĿ¡": 985,
      "åĬŀ": 986,
      "å®¢": 987,
      "å¸¦": 988,
      "æģ¯": 989,
      "åĽĽ": 990,
      "åıĸ": 991,
      "çķĮ": 992,
      "æĸ½": 993,
      "è£ħ": 994,
      "æĶ¾": 995,
      "éŁ": 996,
      "å·ŀ": 997,
      "èĩªå·±": 998,
      "åĽ½å®¶": 999,
      "è¾ĥ": 1000,
      "å¾·": 1001,
      "æ¨": 1002,
      "åįİ": 1003,
      "è®°": 1004,
      "ç©º": 1005,
      "Ġhis": 1006,
      "ov": 1007,
      "å¸Ĥåľº": 1008,
      "æķ´": 1009,
      "éĻħ": 1010,
      "ç©¶": 1011,
      "ich": 1012,
      "åħī": 1013,
      "çĥŃ": 1014,
      "åĽŀ": 1015,
      "ä½¿çĶ¨": 1016,
      "è¿ĳ": 1017,
      "éĤ£": 1018,
      "qu": 1019,
      "æĶ¯": 1020,
      "ant": 1021,
      "éĿŀ": 1022,
      "Ġ2": 1023,
      "ĠIn": 1024,
      "ld": 1025,
      "ä»Ĭ": 1026,
      "éĺ²": 1027,
      "èĻ": 1028,
      "æ³¨": 1029,
      "ç²¾": 1030,
      "å®¹": 1031,
      "åı·": 1032,
      "ary": 1033,
      "çħ": 1034,
      "Ġor": 1035,
      "ĠCh": 1036,
      "çĻ½": 1037,
      "ç§°": 1038,
      "ated": 1039,
      "è§Ĥ": 1040,
      "og": 1041,
      "æ¢": 1042,
      "æ¹": 1043,
      "éĻĲ": 1044,
      "ç¡®": 1045,
      "æīĵ": 1046,
      "æ¶Ī": 1047,
      "ish": 1048,
      "ä¹Ĳ": 1049,
      "å¢ĥ": 1050,
      "The": 1051,
      "ç»Ļ": 1052,
      "çº¦": 1053,
      "fer": 1054,
      "è®®": 1055,
      "our": 1056,
      "å±Ģ": 1057,
      "è½¬": 1058,
      "èİ·": 1059,
      "åĨ³": 1060,
      "Ġ201": 1061,
      "å®ĥ": 1062,
      "éĢŁ": 1063,
      "ĠV": 1064,
      "ç»Ń": 1065,
      "æ²¡æľī": 1066,
      "ug": 1067,
      "æŃ¥": 1068,
      "çİĩ": 1069,
      "çłĶç©¶": 1070,
      "åħĭ": 1071,
      "èĢģ": 1072,
      "ive": 1073,
      "ment": 1074,
      "éªĮ": 1075,
      "è¯ķ": 1076,
      "é¡¹çĽ®": 1077,
      "çĬ": 1078,
      "é¥": 1079,
      "æ·±": 1080,
      "éĢļè¿ĩ": 1081,
      "end": 1082,
      "æĿĥ": 1083,
      "ong": 1084,
      "å¤į": 1085,
      "é¦ĸ": 1086,
      "ä½İ": 1087,
      "åĬŁ": 1088,
      "oun": 1089,
      "å§Ķ": 1090,
      "åĨĽ": 1091,
      "âĢĶ": 1092,
      "ep": 1093,
      "æĹ¶éĹ´": 1094,
      "æīį": 1095,
      "è±": 1096,
      "èģĮ": 1097,
      "ial": 1098,
      "æĬ¤": 1099,
      "äºļ": 1100,
      "åĬ©": 1101,
      "æĺĵ": 1102,
      "mer": 1103,
      "ç§¯": 1104,
      "å¡": 1105,
      "ï¼Ł": 1106,
      "ell": 1107,
      "æµİ": 1108,
      "ect": 1109,
      "æ¨¡": 1110,
      "é©¬": 1111,
      "çĶŁäº§": 1112,
      "æŁ¥": 1113,
      "æıĲä¾Ľ": 1114,
      "Ġ|": 1115,
      "å¤´": 1116,
      "åįĩ": 1117,
      "åĳĬ": 1118,
      "ç±³": 1119,
      "Ġch": 1120,
      "æľª": 1121,
      "se": 1122,
      "ge": 1123,
      "12": 1124,
      "ast": 1125,
      "å£«": 1126,
      "æ¸ħ": 1127,
      "å§ĭ": 1128,
      "ç»´": 1129,
      "å¿«": 1130,
      "æł¹": 1131,
      "åĪĴ": 1132,
      "Ġex": 1133,
      "Ġare": 1134,
      "enc": 1135,
      "und": 1136,
      "ks": 1137,
      "ine": 1138,
      "æĿĲ": 1139,
      "å¼ķ": 1140,
      "å¥³": 1141,
      "æķĻèĤ²": 1142,
      "åĪĻ": 1143,
      "çľŁ": 1144,
      "ust": 1145,
      "ç¥ŀ": 1146,
      "äºĶ": 1147,
      "åĨį": 1148,
      "å»ºè®¾": 1149,
      "è¶ħ": 1150,
      "è´£": 1151,
      "éĩĩ": 1152,
      "æ¡Ī": 1153,
      "åĪĹ": 1154,
      "è§ģ": 1155,
      "æİ§": 1156,
      "åİĨ": 1157,
      "è®º": 1158,
      "ç³»ç»Ł": 1159,
      "èĳ": 1160,
      "éĹ®é¢ĺ": 1161,
      "é£Ł": 1162,
      "åŁŁ": 1163,
      "å±ŀ": 1164,
      "æ¼Ķ": 1165,
      "æĪ¿": 1166,
      "æĴ": 1167,
      "ä»ĸä»¬": 1168,
      "åĳ¨": 1169,
      "æĭī": 1170,
      "18": 1171,
      "äº¿": 1172,
      "ä¸»è¦ģ": 1173,
      "è®¾è®¡": 1174,
      "çīĩ": 1175,
      "åºľ": 1176,
      "Â·": 1177,
      "ra": 1178,
      "è¶Ĭ": 1179,
      "Ġse": 1180,
      "çĭ": 1181,
      "è¯·": 1182,
      "uc": 1183,
      "ord": 1184,
      "ere": 1185,
      "ore": 1186,
      "åĢ¼": 1187,
      "çı": 1188,
      "ä¸ĵä¸ļ": 1189,
      "åİ¿": 1190,
      "ran": 1191,
      "so": 1192,
      "çĪ±": 1193,
      "åĨµ": 1194,
      "æĳ": 1195,
      "æ±Ł": 1196,
      "ç»ıæµİ": 1197,
      "Ġ200": 1198,
      "ame": 1199,
      "æµĭ": 1200,
      "éĶĢ": 1201,
      "æĢģ": 1202,
      "åĵį": 1203,
      "Ġ||": 1204,
      "éľĢè¦ģ": 1205,
      "éħį": 1206,
      "èĤ¡": 1207,
      "å·¥ç¨ĭ": 1208,
      "åŃĺ": 1209,
      "æĺ¾": 1210,
      "ç¤¾ä¼ļ": 1211,
      "11": 1212,
      "åıį": 1213,
      "ä»¥åıĬ": 1214,
      "è¡Įä¸ļ": 1215,
      "30": 1216,
      "ä¸Ķ": 1217,
      "æ¸©": 1218,
      "æİĴ": 1219,
      "èĬ±": 1220,
      "ight": 1221,
      "ical": 1222,
      "é¢Ħ": 1223,
      "ä½ķ": 1224,
      "èīº": 1225,
      "è¯Ĩ": 1226,
      "èĮĥ": 1227,
      "ions": 1228,
      "äº¬": 1229,
      "åŃĹ": 1230,
      "éĻ¤": 1231,
      "æŀģ": 1232,
      "è¶³": 1233,
      "è¯Ń": 1234,
      "èĭ±": 1235,
      "åħ»": 1236,
      "å¤§åŃ¦": 1237,
      "ï¼ģ": 1238,
      "ä¾ĭ": 1239,
      "åįı": 1240,
      "ç´ł": 1241,
      "èĩ´": 1242,
      "ä¼Ĺ": 1243,
      "ost": 1244,
      "ä¿¡æģ¯": 1245,
      "ue": 1246,
      "Ġle": 1247,
      "çĸĹ": 1248,
      "åĨľ": 1249,
      "tern": 1250,
      "åĲĮæĹ¶": 1251,
      "èŀ": 1252,
      "çİĭ": 1253,
      "æĪĲä¸º": 1254,
      "æŀĹ": 1255,
      "ä¹ł": 1256,
      "å®īåħ¨": 1257,
      "ign": 1258,
      "Ġwere": 1259,
      "åį³": 1260,
      "æĸŃ": 1261,
      "åĽ¾": 1262,
      "éŁ³": 1263,
      "Ġsp": 1264,
      "æ£Ģ": 1265,
      "åĽŃ": 1266,
      "é¾": 1267,
      "çīĮ": 1268,
      "çĶŁæ´»": 1269,
      "),": 1270,
      "ie": 1271,
      "åİĭ": 1272,
      "åıĪ": 1273,
      "è¯Ħ": 1274,
      "æĬĬ": 1275,
      "å°±æĺ¯": 1276,
      "çª": 1277,
      "ä¹ī": 1278,
      "éļı": 1279,
      "ç½®": 1280,
      "âĢĿï¼Į": 1281,
      "ack": 1282,
      "å¼ł": 1283,
      "æ´»åĬ¨": 1284,
      "æĻ¯": 1285,
      "ä¸ĸçķĮ": 1286,
      "ç¦»": 1287,
      "ĠHe": 1288,
      "åħļ": 1289,
      "å¥¹": 1290,
      "è¿ŀ": 1291,
      "ĠUn": 1292,
      "çħ§": 1293,
      "å¿ħ": 1294,
      "Ġalso": 1295,
      "æĺŁ": 1296,
      "éļ¾": 1297,
      "Ġwhich": 1298,
      "åĭ": 1299,
      "èħ": 1300,
      "ãĢĤâĢĿ": 1301,
      "çĽĳ": 1302,
      "æ®µ": 1303,
      "ric": 1304,
      "éħĴ": 1305,
      "ä»½": 1306,
      "å¨": 1307,
      "æļ": 1308,
      "ä¸Ńå¿ĥ": 1309,
      "éĻį": 1310,
      "çŁ³": 1311,
      "Ġcomp": 1312,
      "åºĹ": 1313,
      "æĿĳ": 1314,
      "å¤ª": 1315,
      "æĸ¹éĿ¢": 1316,
      "è®¸": 1317,
      "ä¾¿": 1318,
      "èı": 1319,
      "15": 1320,
      "rit": 1321,
      "åĦ": 1322,
      "äººåĳĺ": 1323,
      "æĶ¿åºľ": 1324,
      "åĬ¿": 1325,
      "çļĦä¸Ģ": 1326,
      "æĻº": 1327,
      "åĽ½éĻħ": 1328,
      "åŃ¦çĶŁ": 1329,
      "åĩł": 1330,
      "ther": 1331,
      "åĳ½": 1332,
      "Ġsh": 1333,
      "Ġplay": 1334,
      "ry": 1335,
      "æĹħ": 1336,
      "pp": 1337,
      "æ»¡": 1338,
      "æĸĩåĮĸ": 1339,
      "ç¬¬ä¸Ģ": 1340,
      "åı²": 1341,
      "ure": 1342,
      "ff": 1343,
      "ä¿®": 1344,
      "åı¯èĥ½": 1345,
      "è®¾å¤ĩ": 1346,
      "åģ¥": 1347,
      "æ²¹": 1348,
      "åĶ®": 1349,
      "è¯Ŀ": 1350,
      "çĽ¸åħ³": 1351,
      "éĢĤ": 1352,
      "Ġk": 1353,
      "çİ¯å¢ĥ": 1354,
      "å½±åĵį": 1355,
      "éĻ©": 1356,
      "åĿĩ": 1357,
      "åĽłä¸º": 1358,
      "è´Ł": 1359,
      "ç»ĩ": 1360,
      "éĩįè¦ģ": 1361,
      "æ²³": 1362,
      "age": 1363,
      "æħ": 1364,
      "Ġy": 1365,
      "ass": 1366,
      "çĬ¶": 1367,
      "è¦ģæ±Ĥ": 1368,
      "Ġ18": 1369,
      "ä»ħ": 1370,
      "åĦ¿": 1371,
      "è¿Ļä¸ª": 1372,
      "äº§ä¸ļ": 1373,
      "ï¼īï¼Į": 1374,
      "å¦Ĥæŀľ": 1375,
      "åº·": 1376,
      "å¹²": 1377,
      "èŀį": 1378,
      "å±Ĥ": 1379,
      "å®¤": 1380,
      "æī¿": 1381,
      "æ¬¾": 1382,
      "æĲ": 1383,
      "ĠâĢĵ": 1384,
      "èį¯": 1385,
      "æĥħåĨµ": 1386,
      "ç®Ĺ": 1387,
      "åĥ": 1388,
      "æĿ¿": 1389,
      "man": 1390,
      "ä¸¾": 1391,
      "ire": 1392,
      "ä¾Ŀ": 1393,
      "çļĦäºº": 1394,
      "ç¢": 1395,
      "ç½Ĺ": 1396,
      "ts": 1397,
      "æķ°æį®": 1398,
      "æĺ¯ä¸Ģ": 1399,
      "çĻ¾": 1400,
      "æĬķèµĦ": 1401,
      "å¥ĸ": 1402,
      "ä½ı": 1403,
      "åħ·æľī": 1404,
      "ok": 1405,
      "å·²ç»ı": 1406,
      "irst": 1407,
      "çĮ": 1408,
      "åħ¶ä¸Ń": 1409,
      "cl": 1410,
      "res": 1411,
      "ä½ľä¸º": 1412,
      "å¾Ģ": 1413,
      "æĢĿ": 1414,
      "ous": 1415,
      "éĿĴ": 1416,
      "ç»Ĩ": 1417,
      "åľŁ": 1418,
      "è±¡": 1419,
      "ä»Ģ": 1420,
      "æĪı": 1421,
      "å¼Ģå§ĭ": 1422,
      "21": 1423,
      "æł¸": 1424,
      "èĲ½": 1425,
      "æĭ¬": 1426,
      "ences": 1427,
      "ember": 1428,
      "ç¾İåĽ½": 1429,
      "ä¸įåĲĮ": 1430,
      "çĽĬ": 1431,
      "æľĽ": 1432,
      "ç»Ī": 1433,
      "åŃ£": 1434,
      "iz": 1435,
      "éĵģ": 1436,
      "åħ¶ä»ĸ": 1437,
      "éĺ³": 1438,
      "50": 1439,
      "Ġun": 1440,
      "èĥ½åĬĽ": 1441,
      "åĽ´": 1442,
      "ork": 1443,
      "Ġar": 1444,
      "åł": 1445,
      "æĻ®": 1446,
      "ang": 1447,
      "ational": 1448,
      "ond": 1449,
      "éĥ¨åĪĨ": 1450,
      "åŁ¹": 1451,
      "Re": 1452,
      "åĮħæĭ¬": 1453,
      "æĮī": 1454,
      "æł¹æį®": 1455,
      "çŃĸ": 1456,
      "çĽ®åīį": 1457,
      "åĢĻ": 1458,
      "çº¢": 1459,
      "Ġ20": 1460,
      "åŃ¦æł¡": 1461,
      "ĠY": 1462,
      "çģ«": 1463,
      "éķĩ": 1464,
      "Ġ3": 1465,
      "äººæ°ĳ": 1466,
      "è¨": 1467,
      "ide": 1468,
      "è¨Ģ": 1469,
      "erv": 1470,
      "åŁİå¸Ĥ": 1471,
      "åĥı": 1472,
      "äºī": 1473,
      "å¤±": 1474,
      "åı¤": 1475,
      "hed": 1476,
      "äºĴ": 1477,
      "çŃĳ": 1478,
      "èµ°": 1479,
      "ice": 1480,
      "å·´": 1481,
      "å¤§çļĦ": 1482,
      "ĠĊ": 1483,
      "è¿ĻäºĽ": 1484,
      "çīĪ": 1485,
      "åįķä½į": 1486,
      "ount": 1487,
      "è§Ĵ": 1488,
      "per": 1489,
      "ä¸¥": 1490,
      "Ġcl": 1491,
      "ory": 1492,
      "å¾®": 1493,
      "ations": 1494,
      "ave": 1495,
      "åĩı": 1496,
      "land": 1497,
      "ç»Ħç»ĩ": 1498,
      "å¤Ł": 1499,
      "å¯Ĩ": 1500,
      "Ġhad": 1501,
      "ä»Ģä¹Ī": 1502,
      "åĪĿ": 1503,
      "æ¸¯": 1504,
      "orn": 1505,
      "te": 1506,
      "ä¸ŃçļĦ": 1507,
      "Ġnot": 1508,
      "åħħ": 1509,
      "è´¨éĩı": 1510,
      "ican": 1511,
      "amp": 1512,
      "âĢĿãĢĤ": 1513,
      "å½ķ": 1514,
      "å¤ĦçĲĨ": 1515,
      "å¿µ": 1516,
      "é¾Ļ": 1517,
      "å¥½çļĦ": 1518,
      "åıĭ": 1519,
      "åī§": 1520,
      "åľ°åĮº": 1521,
      "ib": 1522,
      "ç®Ģ": 1523,
      "åħ°": 1524,
      "port": 1525,
      "è´Ń": 1526,
      "ey": 1527,
      "åĪĩ": 1528,
      "çĶ»": 1529,
      "Ġfirst": 1530,
      "åıĮ": 1531,
      "own": 1532,
      "å±ħ": 1533,
      "ferences": 1534,
      "Ġhas": 1535,
      "è¡¨ç¤º": 1536,
      "éĵ¶": 1537,
      "In": 1538,
      "æķħ": 1539,
      "è´¢": 1540,
      "16": 1541,
      "å£°": 1542,
      "ç§ĳæĬĢ": 1543,
      "éĽĨåĽ¢": 1544,
      "æľīéĻĲ": 1545,
      "æ¥": 1546,
      "åĲĪä½ľ": 1547,
      "æłĩåĩĨ": 1548,
      "000": 1549,
      "Ġres": 1550,
      "ç¼ĸ": 1551,
      "ence": 1552,
      "çºª": 1553,
      "ĠAr": 1554,
      "é²": 1555,
      "ĠIt": 1556,
      "é¦Ļ": 1557,
      "fter": 1558,
      "éĺ¿": 1559,
      "è¾¹": 1560,
      "æĸ¹å¼ı": 1561,
      "åİĤ": 1562,
      "ç¦ı": 1563,
      "å¾ĭ": 1564,
      "åį¡": 1565,
      "act": 1566,
      "lect": 1567,
      "ach": 1568,
      "èİ·å¾Ĺ": 1569,
      "åĸĦ": 1570,
      "ç¾¤": 1571,
      "åįļ": 1572,
      "åħ¨åĽ½": 1573,
      "çĵ": 1574,
      "å¯Į": 1575,
      "ater": 1576,
      "æī¹": 1577,
      "åħį": 1578,
      "åįĬ": 1579,
      "è¯¾": 1580,
      "åºĶçĶ¨": 1581,
      "Ġwhe": 1582,
      "å»ºçŃĳ": 1583,
      "ome": 1584,
      "æ±½": 1585,
      "åĪĽæĸ°": 1586,
      "è¿ľ": 1587,
      "å¯¹äºİ": 1588,
      "å¢ŀéķ¿": 1589,
      "References": 1590,
      "Ġro": 1591,
      "å®ŀçİ°": 1592,
      "æĽ¾": 1593,
      "ĠAl": 1594,
      "ition": 1595,
      "äººçļĦ": 1596,
      "èī¯": 1597,
      "ens": 1598,
      "17": 1599,
      "Ġcont": 1600,
      "æĭ©": 1601,
      "ace": 1602,
      "åįł": 1603,
      "Ġus": 1604,
      "çıŃ": 1605,
      "æĹ©": 1606,
      "ä»¥ä¸Ĭ": 1607,
      "ult": 1608,
      "åħ´": 1609,
      "é»Ħ": 1610,
      "eop": 1611,
      "å°¼": 1612,
      "æĤ£": 1613,
      "ĠTh": 1614,
      "åĲ«": 1615,
      "wo": 1616,
      "uct": 1617,
      "å¾Īå¤ļ": 1618,
      "å¿Ĺ": 1619,
      "åį«": 1620,
      "åĩºçİ°": 1621,
      "æĭħ": 1622,
      "Ġte": 1623,
      "ilm": 1624,
      "å¼Ģåıĳ": 1625,
      "å®¡": 1626,
      "ä¹Łæĺ¯": 1627,
      "åŃ¦ä¹ł": 1628,
      "199": 1629,
      "æīĢä»¥": 1630,
      "æıĲé«ĺ": 1631,
      "Ġad": 1632,
      "éĴ¢": 1633,
      "çº³": 1634,
      "åį°": 1635,
      "to": 1636,
      "å®ĺ": 1637,
      "éĥ¨éĹ¨": 1638,
      "å¹³åı°": 1639,
      "ime": 1640,
      "Ġ199": 1641,
      "è¾ĵ": 1642,
      "æĵ": 1643,
      "è§ī": 1644,
      "aw": 1645,
      "14": 1646,
      "æ¸¸æĪı": 1647,
      "æĿĲæĸĻ": 1648,
      "åĽłæŃ¤": 1649,
      "ç»ľ": 1650,
      "æŃ¢": 1651,
      "ik": 1652,
      "çļ®": 1653,
      "åı¦": 1654,
      "éĢīæĭ©": 1655,
      "éĿŀå¸¸": 1656,
      "æĴŃ": 1657,
      "eople": 1658,
      "ates": 1659,
      "Ġpart": 1660,
      "Ġtheir": 1661,
      "é¢Ŀ": 1662,
      "è½»": 1663,
      "è¿ĩç¨ĭ": 1664,
      "ree": 1665,
      "äº²": 1666,
      "ath": 1667,
      "ç§ĳåŃ¦": 1668,
      "Ġj": 1669,
      "Ġ-": 1670,
      "ound": 1671,
      "åºķ": 1672,
      "äºĳ": 1673,
      "ivers": 1674,
      "å¸Į": 1675,
      "ited": 1676,
      "çĭ¬": 1677,
      "èĴ": 1678,
      "åĿļ": 1679,
      "ĠMar": 1680,
      "Ġwho": 1681,
      "Ġher": 1682,
      "ä»ĭ": 1683,
      "åħŃ": 1684,
      "çĸ«": 1685,
      "å®£": 1686,
      "ubl": 1687,
      "22": 1688,
      "Ġ4": 1689,
      "åŃ©": 1690,
      "æľºæŀĦ": 1691,
      "ä¸ĢäºĽ": 1692,
      "Ġits": 1693,
      "èµĦæºĲ": 1694,
      "è®Ń": 1695,
      "èĪª": 1696,
      "13": 1697,
      "åº§": 1698,
      "é¡»": 1699,
      "åī¯": 1700,
      "eb": 1701,
      "for": 1702,
      "åĪ°äºĨ": 1703,
      "åĩ»": 1704,
      "æĿİ": 1705,
      "æī§": 1706,
      "merican": 1707,
      "Ġtr": 1708,
      "ä½Ĩæĺ¯": 1709,
      "ä½Ļ": 1710,
      "ç¿": 1711,
      "çļĦæĺ¯": 1712,
      "pt": 1713,
      "oll": 1714,
      "çĶ³": 1715,
      ").": 1716,
      "out": 1717,
      "æ³¢": 1718,
      "ee": 1719,
      "è¿Ļæł·": 1720,
      "è§Ħå®ļ": 1721,
      "èĭı": 1722,
      "åį´": 1723,
      "ç»§": 1724,
      "æ½": 1725,
      "åĵģçīĮ": 1726,
      "çĶ±äºİ": 1727,
      "over": 1728,
      "æĤ¨": 1729,
      "2019": 1730,
      "åĨħå®¹": 1731,
      "ild": 1732,
      "ail": 1733,
      "å·¥ä¸ļ": 1734,
      "ors": 1735,
      "iss": 1736,
      "pl": 1737,
      "2020": 1738,
      "æīĢæľī": 1739,
      "cc": 1740,
      "åŁºç¡": 1741,
      "ä¹¡": 1742,
      "åĮĹäº¬": 1743,
      "åĨĻ": 1744,
      "ool": 1745,
      "Ġab": 1746,
      "æľīéĻĲåħ¬åı¸": 1747,
      "è¡Ģ": 1748,
      "äº¿åħĥ": 1749,
      "åŁºç¡Ģ": 1750,
      "è¯»": 1751,
      "æĭĽ": 1752,
      "å¹´çļĦ": 1753,
      "ä¸ļåĬ¡": 1754,
      "æ¹ĸ": 1755,
      "Ġapp": 1756,
      "ents": 1757,
      "ng": 1758,
      "èĥ½å¤Ł": 1759,
      "ä¸įæĺ¯": 1760,
      "æ´²": 1761,
      "åıĳçİ°": 1762,
      "Ġbut": 1763,
      "ç¬¬äºĮ": 1764,
      "å¤§å®¶": 1765,
      "ç½ĳç»ľ": 1766,
      "èĩªå·±çļĦ": 1767,
      "ile": 1768,
      "éĢģ": 1769,
      "clud": 1770,
      "ite": 1771,
      "ç«ŀ": 1772,
      "inal": 1773,
      "æĹ¶åĢĻ": 1774,
      "åįĥ": 1775,
      "æĹı": 1776,
      "çķĻ": 1777,
      "è®²": 1778,
      "æ¤": 1779,
      "åģ¥åº·": 1780,
      "æ¿": 1781,
      "å®ĮæĪĲ": 1782,
      "les": 1783,
      "çĨ": 1784,
      "eg": 1785,
      "åĲ¸": 1786,
      "æ¬§": 1787,
      "èĪ¬": 1788,
      "å°½": 1789,
      "are": 1790,
      "è®¤ä¸º": 1791,
      "ç«¯": 1792,
      "åıĳçĶŁ": 1793,
      "hn": 1794,
      "å®Ŀ": 1795,
      "åŃ¦éĻ¢": 1796,
      "ä¸įæĸŃ": 1797,
      "Ġone": 1798,
      "çİ°åľ¨": 1799,
      "æ¬¢": 1800,
      "è®¡åĪĴ": 1801,
      "é¦Ĩ": 1802,
      "çĶ¨æĪ·": 1803,
      "æľ¨": 1804,
      "oot": 1805,
      "60": 1806,
      "ob": 1807,
      "æ¦": 1808,
      "ugh": 1809,
      "æŁĵ": 1810,
      "é¢ĨåŁŁ": 1811,
      "è´§": 1812,
      "ress": 1813,
      "çªģ": 1814,
      "ä¸´": 1815,
      "åĤ": 1816,
      "å®¢æĪ·": 1817,
      "ual": 1818,
      "Ġyear": 1819,
      "ç¥¨": 1820,
      "ä»£è¡¨": 1821,
      "è¡¥": 1822,
      "çł´": 1823,
      "ould": 1824,
      "25": 1825,
      "ç¨³": 1826,
      "ï¼ļâĢľ": 1827,
      "Ġrec": 1828,
      "èĳĹ": 1829,
      "çķ¥": 1830,
      "åĸľ": 1831,
      "å®³": 1832,
      "ade": 1833,
      "ä¸ªäºº": 1834,
      "ä»¤": 1835,
      "æĭ¥": 1836,
      "Ġag": 1837,
      "çľ¼": 1838,
      "ward": 1839,
      "io": 1840,
      "é¢ĳ": 1841,
      "åĳ³": 1842,
      "ç§»": 1843,
      "oy": 1844,
      "æ±¡": 1845,
      "Ġper": 1846,
      "èģļ": 1847,
      "åĽ½åĨħ": 1848,
      "æ±½è½¦": 1849,
      "æ¶Īè´¹": 1850,
      "ĠĊĊ": 1851,
      "äº«": 1852,
      "ĠNew": 1853,
      "éĿ©": 1854,
      "ind": 1855,
      "ä¸Ģå®ļ": 1856,
      "Ġsc": 1857,
      "ss": 1858,
      "è½½": 1859,
      "Ġman": 1860,
      "hip": 1861,
      "å¸®": 1862,
      "åºı": 1863,
      "oin": 1864,
      "old": 1865,
      "uring": 1866,
      "Ġdes": 1867,
      "äºĨè§£": 1868,
      "æ¿Ģ": 1869,
      "ç»ıèĲ¥": 1870,
      "ons": 1871,
      "Ġhave": 1872,
      "çĶ·": 1873,
      "åİĨåı²": 1874,
      "ä½ľçĶ¨": 1875,
      "æĹħæ¸¸": 1876,
      "ç¨İ": 1877,
      "æ²»çĸĹ": 1878,
      "%ï¼Į": 1879,
      "ä¿ĿæĬ¤": 1880,
      "æĸ¹æ³ķ": 1881,
      "80": 1882,
      "ball": 1883,
      "åĬŁèĥ½": 1884,
      "æŃĮ": 1885,
      "ark": 1886,
      "Ġinclud": 1887,
      "å¤«": 1888,
      "è´Łè´£": 1889,
      "æĪĸèĢħ": 1890,
      "ased": 1891,
      "æį¢": 1892,
      "Ġbec": 1893,
      "æİ§åĪ¶": 1894,
      "é»ĳ": 1895,
      "å¢ŀåĬł": 1896,
      "Ġtwo": 1897,
      "æŃ¦": 1898,
      "ç»¼": 1899,
      "å¥¥": 1900,
      "ç»ĵæŀĦ": 1901,
      "éľĢæ±Ĥ": 1902,
      "ied": 1903,
      "ings": 1904,
      "æĶ¯æĮģ": 1905,
      "çĻ»": 1906,
      "åħ¨çĲĥ": 1907,
      "ç£": 1908,
      "Ġthis": 1909,
      "éĥ½æĺ¯": 1910,
      "é¸": 1911,
      "wn": 1912,
      "æĺ¥": 1913,
      "èĹ": 1914,
      "æľīåħ³": 1915,
      "æŀĲ": 1916,
      "æĻºèĥ½": 1917,
      "å²ģ": 1918,
      "å©": 1919,
      "æĽ²": 1920,
      "ç´¢": 1921,
      "ä¸ºäºĨ": 1922,
      "ãĢĮ": 1923,
      "ãĢį": 1924,
      "24": 1925,
      "éĩĩçĶ¨": 1926,
      "å·®": 1927,
      "ä½įäºİ": 1928,
      "åħ«": 1929,
      "urn": 1930,
      "Ġall": 1931,
      "ä¸°": 1932,
      "å¾ģ": 1933,
      "åĬ³": 1934,
      "ĠCom": 1935,
      "Ġfilm": 1936,
      "æıĲåįĩ": 1937,
      "hy": 1938,
      "ä¹ĭä¸Ģ": 1939,
      "æ¯į": 1940,
      "æ±ī": 1941,
      "æĿ¥çļĦ": 1942,
      "é£ŀ": 1943,
      "æīĺ": 1944,
      "ton": 1945,
      "å¼Ĥ": 1946,
      "å¾ħ": 1947,
      "æĬĹ": 1948,
      "ï¼īãĢĤ": 1949,
      "è¿Ļç§į": 1950,
      "chool": 1951,
      "éļľ": 1952,
      "ä¹ĭåĲİ": 1953,
      "åĪ¶éĢł": 1954,
      "æŁĲ": 1955,
      "è½¯": 1956,
      "ä¸Ĭæµ·": 1957,
      "ä»į": 1958,
      "..": 1959,
      "ics": 1960,
      "ä¸ĢæŃ¥": 1961,
      "ç»¿": 1962,
      "able": 1963,
      "ev": 1964,
      "å¼Ģå±ķ": 1965,
      "æĶ¿çŃĸ": 1966,
      "ç«ł": 1967,
      "ä¸įèĥ½": 1968,
      "Ġbeen": 1969,
      "å±Ĭ": 1970,
      "æİĪ": 1971,
      "åŃ©åŃĲ": 1972,
      "èīºæľ¯": 1973,
      "çŁŃ": 1974,
      "è¿°": 1975,
      "Ġcomm": 1976,
      "ï¼ĮâĢľ": 1977,
      "å¯Ł": 1978,
      "åĨł": 1979,
      "ft": 1980,
      "åª": 1981,
      "æ¥¼": 1982,
      "åıĤåĬł": 1983,
      "åıĳå¸ĥ": 1984,
      "èĻ½": 1985,
      "Ġother": 1986,
      "åīĤ": 1987,
      "åħ¸": 1988,
      "æĭ¥æľī": 1989,
      "éĶĢåĶ®": 1990,
      "40": 1991,
      "Ġpr": 1992,
      "Ġdis": 1993,
      "çĶµåŃĲ": 1994,
      "æī¾": 1995,
      "ely": 1996,
      "ä¹°": 1997,
      "uch": 1998,
      "gh": 1999,
      "çĩ": 2000,
      "è¿ĺæĺ¯": 2001,
      "ä¸ĢèĪ¬": 2002,
      "Ġ5": 2003,
      "è¿Ļä¸Ģ": 2004,
      "åģľ": 2005,
      "Ġact": 2006,
      "ä¸ĬçļĦ": 2007,
      "å¥ĩ": 2008,
      "å²Ľ": 2009,
      "è¿Ľåħ¥": 2010,
      "23": 2011,
      "ä¼¤": 2012,
      "åĲĥ": 2013,
      "ä»·æł¼": 2014,
      "Ġafter": 2015,
      "Ġim": 2016,
      "åĲ¦": 2017,
      "ury": 2018,
      "outh": 2019,
      "ç§Ģ": 2020,
      "è§£åĨ³": 2021,
      "ç»©": 2022,
      "we": 2023,
      "èŃ": 2024,
      "æĹ¥æľ¬": 2025,
      "è¾¾åĪ°": 2026,
      "å³": 2027,
      "ted": 2028,
      "å¿ħé¡»": 2029,
      "é¼": 2030,
      "åĪ©çĶ¨": 2031,
      "one": 2032,
      "iversity": 2033,
      "ç½ĳç«Ļ": 2034,
      "ral": 2035,
      "éħ¸": 2036,
      "2018": 2037,
      "ä¿ĥ": 2038,
      "æįŁ": 2039,
      "70": 2040,
      "åĲ¬": 2041,
      "åĨ·": 2042,
      "äºĨä¸Ģ": 2043,
      "è¶ħè¿ĩ": 2044,
      "%ãĢĤ": 2045,
      "éĻĪ": 2046,
      "åĲĦç§į": 2047,
      "ä½Ľ": 2048,
      "æ°´å¹³": 2049,
      "orld": 2050,
      "åĪĨæŀĲ": 2051,
      "rop": 2052,
      "èŃ¦": 2053,
      "è½®": 2054,
      "ç»¼åĲĪ": 2055,
      "ah": 2056,
      "çĶµå½±": 2057,
      "åŁºæľ¬": 2058,
      "ished": 2059,
      "çĳ": 2060,
      "Ġlin": 2061,
      "ance": 2062,
      "ood": 2063,
      "åĮ»éĻ¢": 2064,
      "åħ³ç³»": 2065,
      "æłĳ": 2066,
      "æĪĳåĽ½": 2067,
      "æŃ»": 2068,
      "æĽ´å¤ļ": 2069,
      "æĤ£èĢħ": 2070,
      "è¡ĮæĶ¿": 2071,
      "ç»Ŀ": 2072,
      "gan": 2073,
      "æ¯Ķè¾ĥ": 2074,
      "anc": 2075,
      "Ġen": 2076,
      "ç´§": 2077,
      "éĿ¢ç§¯": 2078,
      "åģĩ": 2079,
      "Ġoff": 2080,
      "å¨ģ": 2081,
      "olog": 2082,
      "åĩĢ": 2083,
      "æ¹¾": 2084,
      "ç³»åĪĹ": 2085,
      "äº§çĶŁ": 2086,
      "ç§¯æŀģ": 2087,
      "ä¼łç»Ł": 2088,
      "ä¸ĥ": 2089,
      "ä»Ĭå¹´": 2090,
      "ex": 2091,
      "ision": 2092,
      "åºŃ": 2093,
      "ase": 2094,
      "æĸ°çļĦ": 2095,
      "æķĻåŃ¦": 2096,
      "æĺ¾ç¤º": 2097,
      "æ¯ĶèµĽ": 2098,
      "åĽº": 2099,
      "ĠAmerican": 2100,
      "ç¯": 2101,
      "ren": 2102,
      "æ¶²": 2103,
      "å½¢æĪĲ": 2104,
      "çī¹åĪ«": 2105,
      "ä¹ĭéĹ´": 2106,
      "ç²¾ç¥ŀ": 2107,
      "å§Ķåĳĺ": 2108,
      "éĴŁ": 2109,
      "æ¯Ĵ": 2110,
      "éº": 2111,
      "çĶ¨äºİ": 2112,
      "å»ºç«ĭ": 2113,
      "ä¹Ŀ": 2114,
      "å¥Ĺ": 2115,
      "æĦ¿": 2116,
      "èĥľ": 2117,
      "ram": 2118,
      "ans": 2119,
      "rib": 2120,
      "ä»ĺ": 2121,
      "è¿ĲåĬ¨": 2122,
      "è´£ä»»": 2123,
      "Ġup": 2124,
      "åŃĺåľ¨": 2125,
      "å®ŀæĸ½": 2126,
      "å®ģ": 2127,
      "rap": 2128,
      "Ġshe": 2129,
      "ĠĠ": 2130,
      "çĹĩ": 2131,
      "çĿ£": 2132,
      "å°Ħ": 2133,
      "Ex": 2134,
      "å¸ĮæľĽ": 2135,
      "Ġpeople": 2136,
      "æ¯ķ": 2137,
      "åľ°æĸ¹": 2138,
      "æĪĲç«ĭ": 2139,
      "è¿ĺæľī": 2140,
      "åºĵ": 2141,
      "èĩªçĦ¶": 2142,
      "æĮģç»Ń": 2143,
      "ç§Ł": 2144,
      "ĠAn": 2145,
      "çłģ": 2146,
      "æľīæķĪ": 2147,
      "äº¤éĢļ": 2148,
      "è¯ī": 2149,
      "éħĴåºĹ": 2150,
      "Ġover": 2151,
      "Ã©": 2152,
      "Ġ198": 2153,
      "å½©": 2154,
      "Ġev": 2155,
      "åªĴ": 2156,
      "è¡Ĺ": 2157,
      "è®¯": 2158,
      "Ġout": 2159,
      "éĻĦ": 2160,
      "åıĤä¸İ": 2161,
      "éĢĲ": 2162,
      "ç»į": 2163,
      "Âł": 2164,
      "ä¸ĩåħĥ": 2165,
      "Ġserv": 2166,
      "é¥°": 2167,
      "èĨ": 2168,
      "ä¼ļè®®": 2169,
      "æĪĲåĬŁ": 2170,
      "èĮ¶": 2171,
      "cent": 2172,
      "éģĩ": 2173,
      "âĢĶâĢĶ": 2174,
      "éĹ»": 2175,
      "ç¬¬ä¸ī": 2176,
      "form": 2177,
      "æ²Ļ": 2178,
      "ä½ľåĵģ": 2179,
      "è´µ": 2180,
      "way": 2181,
      "æĻļ": 2182,
      "ä»¥ä¸ĭ": 2183,
      "çŁ¥è¯Ĩ": 2184,
      "Ġnew": 2185,
      "ists": 2186,
      "ont": 2187,
      "Ġthey": 2188,
      "éĢı": 2189,
      "æĵį": 2190,
      "Ġwork": 2191,
      "çİ©": 2192,
      "ason": 2193,
      "ames": 2194,
      "ĠSh": 2195,
      "ne": 2196,
      "éļıçĿĢ": 2197,
      "äºĪ": 2198,
      "ĠĊĊĊ": 2199,
      "æĬ¥åĳĬ": 2200,
      "az": 2201,
      "ootball": 2202,
      "æľĿ": 2203,
      "Ġloc": 2204,
      "ä¸įä¼ļ": 2205,
      "Ġinto": 2206,
      "uary": 2207,
      "Ġgro": 2208,
      "éĵ¶è¡Į": 2209,
      "28": 2210,
      "éĺ¶": 2211,
      "èĢĮä¸Ķ": 2212,
      "è¿½": 2213,
      "ĠLe": 2214,
      "å·¦": 2215,
      "çĶ³è¯·": 2216,
      "ä»ĸçļĦ": 2217,
      "æĿ¡ä»¶": 2218,
      "åĺ": 2219,
      "100": 2220,
      "Ġund": 2221,
      "çĽĸ": 2222,
      "ç¼º": 2223,
      "éĩįçĤ¹": 2224,
      "ç»ĥ": 2225,
      "éŃ": 2226,
      "è®¸å¤ļ": 2227,
      "ĠSp": 2228,
      "é¥®": 2229,
      "âĢ¦": 2230,
      "éĻĨ": 2231,
      "æľªæĿ¥": 2232,
      "eral": 2233,
      "åĪ»": 2234,
      "èģĶç½ĳ": 2235,
      "çŁ¥éģĵ": 2236,
      "ix": 2237,
      "æľŁéĹ´": 2238,
      "ä¼¼": 2239,
      "å¦Ĥä½ķ": 2240,
      "æİ¢": 2241,
      "¤Ĳ": 2242,
      "é¡º": 2243,
      "å®Ī": 2244,
      "çĪ¶": 2245,
      "è®°èĢħ": 2246,
      "æĸ¹æ¡Ī": 2247,
      "ĠZ": 2248,
      "åºĨ": 2249,
      "åĿĹ": 2250,
      "ale": 2251,
      "ä½³": 2252,
      "å®ŀéĻħ": 2253,
      "198": 2254,
      "èĻ½çĦ¶": 2255,
      "è¿Ľä¸ĢæŃ¥": 2256,
      "è¿Ļæĺ¯": 2257,
      "ough": 2258,
      "åĲ¯": 2259,
      "æ¡¥": 2260,
      "æ¤į": 2261,
      "éĩĳèŀį": 2262,
      "çĽ®æłĩ": 2263,
      "è·Ł": 2264,
      "ternal": 2265,
      "ick": 2266,
      "åĽ°": 2267,
      "ock": 2268,
      "åı³": 2269,
      "çŃ¾": 2270,
      "çģµ": 2271,
      "Ġatt": 2272,
      "Ġpre": 2273,
      "è§Ħæ¨¡": 2274,
      "ä¸½": 2275,
      "ä¹ħ": 2276,
      "éĢĢ": 2277,
      "åħ³äºİ": 2278,
      "Ġ6": 2279,
      "ä»ª": 2280,
      "ict": 2281,
      "æ¨¡å¼ı": 2282,
      "26": 2283,
      "æ´¾": 2284,
      "å¸Ń": 2285,
      "ann": 2286,
      "åİħ": 2287,
      "ä»»ä½ķ": 2288,
      "èĵ": 2289,
      "emb": 2290,
      "ll": 2291,
      "æĭį": 2292,
      "rans": 2293,
      "éĨ": 2294,
      "å¸®åĬ©": 2295,
      "èį£": 2296,
      "æĿ¾": 2297,
      "çĶļ": 2298,
      "ä¸įä»ħ": 2299,
      "èģĮä¸ļ": 2300,
      "çĽ´æİ¥": 2301,
      "ç»§ç»Ń": 2302,
      "ä¸Ģèµ·": 2303,
      "ake": 2304,
      "å·Ŀ": 2305,
      "orth": 2306,
      "è¿İ": 2307,
      "å¤ı": 2308,
      "æĮ¥": 2309,
      "å»¶": 2310,
      "ä»·åĢ¼": 2311,
      "çĽŁ": 2312,
      "éĴĪ": 2313,
      "iel": 2314,
      "æĶ»": 2315,
      "çĶ²": 2316,
      "æıĲåĩº": 2317,
      "å¤®": 2318,
      "ily": 2319,
      "Ġsec": 2320,
      "éĤ£ä¹Ī": 2321,
      "vel": 2322,
      "é½": 2323,
      "éĴ±": 2324,
      "æī©": 2325,
      "èĭ¥": 2326,
      "æĭ¿": 2327,
      "å¯¼èĩ´": 2328,
      "çĶ°": 2329,
      "ĠPro": 2330,
      "ä¸ĢçĽ´": 2331,
      "27": 2332,
      "æľĢåĲİ": 2333,
      "Ġtime": 2334,
      "red": 2335,
      "è°¢": 2336,
      "ĠUniversity": 2337,
      "èĽ": 2338,
      "è§ĦåĪĴ": 2339,
      "æĿĤ": 2340,
      "ose": 2341,
      "ä»ĭç»į": 2342,
      "èįī": 2343,
      "Ġbu": 2344,
      "ä½ĵç³»": 2345,
      "åĨ²": 2346,
      "è¯¢": 2347,
      "ĠUnited": 2348,
      "å®Ĺ": 2349,
      "ious": 2350,
      "åħ¬éĩĮ": 2351,
      "éĿł": 2352,
      "åłĤ": 2353,
      "Ġpol": 2354,
      "èĮĥåĽ´": 2355,
      "éĢłæĪĲ": 2356,
      "æŀ¶": 2357,
      "é¤Ĳ": 2358,
      "åı¶": 2359,
      "che": 2360,
      "ina": 2361,
      "è®¢": 2362,
      "oci": 2363,
      "èĹı": 2364,
      "ĠInd": 2365,
      "åĲī": 2366,
      "ç²ī": 2367,
      "èĥĮ": 2368,
      "æĳĦ": 2369,
      "ince": 2370,
      "rough": 2371,
      "æĶ¶åħ¥": 2372,
      "æ¢°": 2373,
      "eat": 2374,
      "æ¾": 2375,
      "çĮ®": 2376,
      "als": 2377,
      "ier": 2378,
      "çīĽ": 2379,
      "åĪĨåĪ«": 2380,
      "æ°¸": 2381,
      "éĽ¶": 2382,
      "åĬłå¼º": 2383,
      "ç¬¦": 2384,
      "Ġprod": 2385,
      "åĪĺ": 2386,
      "å¹ħ": 2387,
      "è®¿": 2388,
      "çļĦå¤§": 2389,
      "çİ°ä»£": 2390,
      "è¡Įä¸º": 2391,
      "ç»ĵåĲĪ": 2392,
      "ife": 2393,
      "æĢ¥": 2394,
      "æĹ¶ä»£": 2395,
      "äººåı£": 2396,
      "èĦĳ": 2397,
      "Ġ197": 2398,
      "æ³¨æĦı": 2399,
      "2017": 2400,
      "Ġlinks": 2401,
      "Ġkn": 2402,
      "æķ£": 2403,
      "çļĦæĹ¶åĢĻ": 2404,
      "åĨĮ": 2405,
      "éĵ¾": 2406,
      "è®¡ç®Ĺ": 2407,
      "éĶĻ": 2408,
      "å¡Ķ": 2409,
      "åĵª": 2410,
      "irect": 2411,
      "éĽ·": 2412,
      "é¢Ĩå¯¼": 2413,
      "âĢĻ": 2414,
      "ident": 2415,
      "Ġpubl": 2416,
      "å¹³æĸ¹": 2417,
      "Ġunder": 2418,
      "æĿ¥è¯´": 2419,
      "éĽ¨": 2420,
      "éŁ³ä¹Ĳ": 2421,
      "äººä»¬": 2422,
      "ĠCol": 2423,
      "ĠJo": 2424,
      "Ġcons": 2425,
      "ä¸¤ä¸ª": 2426,
      "äººæīį": 2427,
      "Ġreg": 2428,
      "åħ¨éĿ¢": 2429,
      "oth": 2430,
      "åºŁ": 2431,
      "29": 2432,
      "ook": 2433,
      "External": 2434,
      "Ġplayers": 2435,
      "åįĪ": 2436,
      "åıĸå¾Ĺ": 2437,
      "é¦Ļæ¸¯": 2438,
      "åĪļ": 2439,
      "Ġbet": 2440,
      "èĢĲ": 2441,
      "aj": 2442,
      "è¯į": 2443,
      "åħ±åĲĮ": 2444,
      "reat": 2445,
      "åºĶè¯¥": 2446,
      "inn": 2447,
      "åį±": 2448,
      "åĨ³å®ļ": 2449,
      "åŁºéĩĳ": 2450,
      "æķĪæŀľ": 2451,
      "æ³ķå¾ĭ": 2452,
      "ľé£İ": 2453,
      "Ġhim": 2454,
      "ãĢĭï¼Į": 2455,
      "å¸ģ": 2456,
      "æ¶¦": 2457,
      "çĻ½çĻ": 2458,
      "Ġteam": 2459,
      "æĮīçħ§": 2460,
      "use": 2461,
      "æ°§": 2462,
      "èĦ±": 2463,
      "çĶµè§Ĩ": 2464,
      "ãĢĢ": 2465,
      "åľ£": 2466,
      "çĻ½çĻľé£İ": 2467,
      "ever": 2468,
      "æķĻå¸Ī": 2469,
      "åĢŁ": 2470,
      "åĮ»çĸĹ": 2471,
      "éĶ®": 2472,
      "Ġind": 2473,
      "åıªæľī": 2474,
      "ä¼Ĭ": 2475,
      "çĸ«æĥħ": 2476,
      "çĸ¾": 2477,
      "ä¸ĵå®¶": 2478,
      "ç»ıè¿ĩ": 2479,
      "air": 2480,
      "å¾ĹåĪ°": 2481,
      "åŁ¹è®Ń": 2482,
      "åĬª": 2483,
      "æĪĲæľ¬": 2484,
      "èĥ½æºĲ": 2485,
      "ç©ºéĹ´": 2486,
      "usic": 2487,
      "æ±ł": 2488,
      "å°ģ": 2489,
      "åĵĪ": 2490,
      "äº¤æĺĵ": 2491,
      "ç»ĵæŀľ": 2492,
      "ä»¥æĿ¥": 2493,
      "Ġform": 2494,
      "é¡¾": 2495,
      "ç«¥": 2496,
      "ities": 2497,
      "çłĶåıĳ": 2498,
      "att": 2499,
      "Ġ7": 2500,
      "æ´Ĺ": 2501,
      "åĤ¨": 2502,
      "èıľ": 2503,
      "åĳ¢": 2504,
      "ober": 2505,
      "èģĶåĲĪ": 2506,
      "åĪ¤": 2507,
      "é£Łåĵģ": 2508,
      "ä¿ĿæĮģ": 2509,
      "ollow": 2510,
      "ç»ıéªĮ": 2511,
      "åĽ¢éĺŁ": 2512,
      "é±": 2513,
      "è°Ī": 2514,
      "æİª": 2515,
      "å¡ĳ": 2516,
      "pr": 2517,
      "çĶŁçī©": 2518,
      "æī§è¡Į": 2519,
      "å°ļ": 2520,
      "è·Ŀ": 2521,
      "æ³Ľ": 2522,
      "Ġcol": 2523,
      "son": 2524,
      "Ġwould": 2525,
      "çĨŁ": 2526,
      "çļĦåıĳå±ķ": 2527,
      "der": 2528,
      "ular": 2529,
      "é±¼": 2530,
      "åİŁåĽł": 2531,
      "çĶŁæĢģ": 2532,
      "çĶļèĩ³": 2533,
      "Ġcent": 2534,
      "ional": 2535,
      "èĩªåĬ¨": 2536,
      "å·¨": 2537,
      "Ġwhen": 2538,
      "èĸ": 2539,
      "ative": 2540,
      "ween": 2541,
      "æľĭ": 2542,
      "ĠSc": 2543,
      "ä¹İ": 2544,
      "ç¨³å®ļ": 2545,
      "str": 2546,
      "Ġmore": 2547,
      "Ġest": 2548,
      "éģ¿": 2549,
      "è¯º": 2550,
      "å½Ĵ": 2551,
      "è¿Ŀ": 2552,
      "ĠCl": 2553,
      "æŃ£å¼ı": 2554,
      "Ġgen": 2555,
      "çŁ¿": 2556,
      "Ġagain": 2557,
      "åıĹåĪ°": 2558,
      "arl": 2559,
      "çİ°åľº": 2560,
      "éľ²": 2561,
      "é¡¶": 2562,
      "ĠEng": 2563,
      "æĪĳä»¬çļĦ": 2564,
      "overn": 2565,
      "æĢ§çļĦ": 2566,
      "eries": 2567,
      "ç¤¼": 2568,
      "æľºæ¢°": 2569,
      "è¯Ĭ": 2570,
      "round": 2571,
      "any": 2572,
      "è¡¨çİ°": 2573,
      "lish": 2574,
      "bum": 2575,
      "Ġco": 2576,
      "Ġsub": 2577,
      "Ġwhere": 2578,
      "Ġass": 2579,
      "ement": 2580,
      "éģĹ": 2581,
      "åĪ¶ä½ľ": 2582,
      "è¿ĩç¨ĭä¸Ń": 2583,
      "å±ŀäºİ": 2584,
      "Ġduring": 2585,
      "æ³°": 2586,
      "æĢİ": 2587,
      "æĸĹ": 2588,
      "Ġstud": 2589,
      "äº¦": 2590,
      "åħµ": 2591,
      "sp": 2592,
      "Ġqu": 2593,
      "ä¼ĺåĬ¿": 2594,
      "Ġspec": 2595,
      "åĩıå°ĳ": 2596,
      "Ġret": 2597,
      "ash": 2598,
      "resent": 2599,
      "Ġsup": 2600,
      "enn": 2601,
      "ph": 2602,
      "åĮºåŁŁ": 2603,
      "ä¸įè¿ĩ": 2604,
      "æ´ĭ": 2605,
      "äº®": 2606,
      "æİ¨åĬ¨": 2607,
      "2016": 2608,
      "å¹¶ä¸Ķ": 2609,
      "ä¸Ģæ¬¡": 2610,
      "åªĴä½ĵ": 2611,
      "æĢ§èĥ½": 2612,
      "æķĳ": 2613,
      "å®¹æĺĵ": 2614,
      "è´¸": 2615,
      "åıĺåĮĸ": 2616,
      "æ¸Ĳ": 2617,
      "èµĦéĩĳ": 2618,
      "èĪŀ": 2619,
      "Ġ196": 2620,
      "è®¾æĸ½": 2621,
      "ley": 2622,
      "ĠBr": 2623,
      "é£İéĻ©": 2624,
      "æĶ¹éĿ©": 2625,
      "ept": 2626,
      "ä¸Ģç§į": 2627,
      "Ġsy": 2628,
      "æĽ´åĬł": 2629,
      "ï¼īãĢģ": 2630,
      "ä¿ĥè¿Ľ": 2631,
      "ç¾İåħĥ": 2632,
      "æĹłæ³ķ": 2633,
      "ç®±": 2634,
      "æĸ½å·¥": 2635,
      "ä¸Ģæł·": 2636,
      "35": 2637,
      "ä¿Ŀéļľ": 2638,
      "Ġyears": 2639,
      "90": 2640,
      "ç«ŀäºī": 2641,
      "åĳĺå·¥": 2642,
      "Ġ8": 2643,
      "çĵ¦": 2644,
      "æ··": 2645,
      "åĪ¶åº¦": 2646,
      "æĿ¥èĩª": 2647,
      "è¾Ĩ": 2648,
      "å§Ķåĳĺä¼ļ": 2649,
      "éĻ¤äºĨ": 2650,
      "å®¶åºŃ": 2651,
      "é¹": 2652,
      "Ġfound": 2653,
      "çĽĺ": 2654,
      "Ġcan": 2655,
      "ä¼ĳ": 2656,
      "Ġfootball": 2657,
      "æİ¨è¿Ľ": 2658,
      "Ġrel": 2659,
      "èĤī": 2660,
      "Ġfl": 2661,
      "å¹´æĿ¥": 2662,
      "ä¸Ńåįİ": 2663,
      "æ£®": 2664,
      "é¡µ": 2665,
      "åŁ¹åħ»": 2666,
      "ç´¯": 2667,
      "iving": 2668,
      "ä¸Ŀ": 2669,
      "--": 2670,
      "ograp": 2671,
      "iam": 2672,
      "Ġbir": 2673,
      "Ġelect": 2674,
      "ĠShe": 2675,
      "ouse": 2676,
      "åĬªåĬĽ": 2677,
      "Ġonly": 2678,
      "ä¸Ńå¤®": 2679,
      "éĩĬ": 2680,
      "Ġrele": 2681,
      "æ¯ķä¸ļ": 2682,
      "æľĭåıĭ": 2683,
      "ean": 2684,
      "æĪĺçķ¥": 2685,
      "ç¬Ķ": 2686,
      "45": 2687,
      "ific": 2688,
      "èĲ¨": 2689,
      "ä¿ĿéĻ©": 2690,
      "ague": 2691,
      "é²ľ": 2692,
      "åºĬ": 2693,
      "åħ³æ³¨": 2694,
      "Ġ10": 2695,
      "åķĨä¸ļ": 2696,
      "ä¼¦": 2697,
      "æ¶ī": 2698,
      "Ġbetween": 2699,
      "äºĴèģĶç½ĳ": 2700,
      "sh": 2701,
      "erman": 2702,
      "æİ¥åıĹ": 2703,
      "æĿĢ": 2704,
      "éĺ¶æ®µ": 2705,
      "Ġdec": 2706,
      "åĪĨéĴŁ": 2707,
      "æĵįä½ľ": 2708,
      "æľĢç»Ī": 2709,
      "ä¿Ŀè¯ģ": 2710,
      "æħ¢": 2711,
      "ä¸°å¯Į": 2712,
      "æł¸å¿ĥ": 2713,
      "äº¤æµģ": 2714,
      "åĲĮæ¯Ķ": 2715,
      "Ġac": 2716,
      "Ġ17": 2717,
      "è¯ļ": 2718,
      "31": 2719,
      "ç¡¬": 2720,
      "Ġinter": 2721,
      "Ġmost": 2722,
      "ĠStates": 2723,
      "æĪª": 2724,
      "çĸĳ": 2725,
      "æĺ¯åľ¨": 2726,
      "Ġed": 2727,
      "cess": 2728,
      "å¸Ŀ": 2729,
      "ject": 2730,
      "hen": 2731,
      "çļĦé«ĺ": 2732,
      "Ġacc": 2733,
      "çļĦæĸ°": 2734,
      "è®¨": 2735,
      "è§¦": 2736,
      "çĤİ": 2737,
      "å¤ľ": 2738,
      "å°ıæĹ¶": 2739,
      "\".": 2740,
      "Ġart": 2741,
      "ank": 2742,
      "å³°": 2743,
      "Ġabout": 2744,
      "éĿĻ": 2745,
      "èĪ¹": 2746,
      "ef": 2747,
      "çº¸": 2748,
      "åĬłå·¥": 2749,
      "çĽĽ": 2750,
      "æķħäºĭ": 2751,
      "istory": 2752,
      "èĻĳ": 2753,
      "æ£ĢæŁ¥": 2754,
      "çĥĪ": 2755,
      "é²ģ": 2756,
      "åĬ±": 2757,
      "åįıä¼ļ": 2758,
      "çļĦä¸Ģä¸ª": 2759,
      "ĠWar": 2760,
      "uss": 2761,
      "Ġfam": 2762,
      "ths": 2763,
      "æĿŁ": 2764,
      "Ġthree": 2765,
      "ern": 2766,
      "ä¼´": 2767,
      "å¡ŀ": 2768,
      "çľĭåĪ°": 2769,
      "æīĭæľº": 2770,
      "æ¢¦": 2771,
      "åįĸ": 2772,
      "åĪ¸": 2773,
      "èĥ¶": 2774,
      "æ±ĩ": 2775,
      "ower": 2776,
      "æĺ¯åĲ¦": 2777,
      "çīĻ": 2778,
      "çŃĶ": 2779,
      "è´«": 2780,
      "åĿļæĮģ": 2781,
      "å°¤": 2782,
      "å©ļ": 2783,
      "ating": 2784,
      "197": 2785,
      "omen": 2786,
      "Ġseason": 2787,
      "åİļ": 2788,
      "æĹ§": 2789,
      "å´": 2790,
      "ä½ĵèĤ²": 2791,
      "å½¢å¼ı": 2792,
      "__": 2793,
      "å®ŀéªĮ": 2794,
      "ield": 2795,
      "çĩĥ": 2796,
      "èª": 2797,
      "äºĭä¸ļ": 2798,
      "èµ·æĿ¥": 2799,
      "ten": 2800,
      "è¿ª": 2801,
      "Ġrem": 2802,
      "åį«çĶŁ": 2803,
      "ĠQ": 2804,
      "ins": 2805,
      "éĽĦ": 2806,
      "æ´Ľ": 2807,
      "Ġalbum": 2808,
      "æ¦Ĥ": 2809,
      "Ġnum": 2810,
      "è¿ĲèĲ¥": 2811,
      "ax": 2812,
      "æĺ¯ä¸Ģä¸ª": 2813,
      "Ġsing": 2814,
      "å¿«éĢŁ": 2815,
      "Ġend": 2816,
      "2015": 2817,
      "ä¸ĭéĻį": 2818,
      "éĢĶ": 2819,
      "åºĶå½ĵ": 2820,
      "Ġfollow": 2821,
      "ä¸¥éĩį": 2822,
      "Ġdist": 2823,
      "åħ·ä½ĵ": 2824,
      "æ£Ģæµĭ": 2825,
      "è§Ī": 2826,
      "erm": 2827,
      "æ¯Ľ": 2828,
      "ä¸»é¢ĺ": 2829,
      "èĢĥè¯ķ": 2830,
      "åıĬæĹ¶": 2831,
      "ä¼ĺç§Ģ": 2832,
      "åĶ±": 2833,
      "å½ĵæĹ¶": 2834,
      "erson": 2835,
      "Ġlater": 2836,
      "Ġwrit": 2837,
      "oss": 2838,
      "Ġthrough": 2839,
      "Ġused": 2840,
      "éĻįä½İ": 2841,
      "è¿ĻéĩĮ": 2842,
      "å¹ķ": 2843,
      "pen": 2844,
      "iver": 2845,
      "æĶ¿æ²»": 2846,
      "èµĦäº§": 2847,
      "ç»ĦæĪĲ": 2848,
      "åĨľä¸ļ": 2849,
      "æľīçļĦ": 2850,
      "æľ«": 2851,
      "Ġmade": 2852,
      "æģ©": 2853,
      "æŃ¤å¤ĸ": 2854,
      "èĭ¦": 2855,
      "çİ¯ä¿Ŀ": 2856,
      "éŁ©": 2857,
      "å®ľ": 2858,
      "arg": 2859,
      "ĠFran": 2860,
      "æĪĳçļĦ": 2861,
      "Ġdirect": 2862,
      "æŃ£åľ¨": 2863,
      "une": 2864,
      "ese": 2865,
      "ä¹ĺ": 2866,
      "åħ¬å¼Ģ": 2867,
      "éļĶ": 2868,
      "rict": 2869,
      "ures": 2870,
      "æĥł": 2871,
      "ism": 2872,
      "èĢģå¸Ī": 2873,
      "Ġ9": 2874,
      "Ġthem": 2875,
      "ai": 2876,
      "å¹¿æ³Ľ": 2877,
      "åĬ³åĬ¨": 2878,
      "Ġdef": 2879,
      ".\"": 2880,
      "Ġsecond": 2881,
      "èģĺ": 2882,
      "ĠFor": 2883,
      "Ġmov": 2884,
      "æ³¨åĨĮ": 2885,
      "ç¼©": 2886,
      "é½Ĳ": 2887,
      "åħ³éĶ®": 2888,
      "è½¯ä»¶": 2889,
      "ä¼°": 2890,
      "èµĦæĸĻ": 2891,
      "èĶ": 2892,
      "è°ĥæŁ¥": 2893,
      "å±ĭ": 2894,
      "iew": 2895,
      "ç½ª": 2896,
      "ĠOn": 2897,
      "æĿ¨": 2898,
      "mp": 2899,
      "çĬ¯": 2900,
      "å®½": 2901,
      "Ġ&": 2902,
      "æĪĲç»©": 2903,
      "æ±¡æŁĵ": 2904,
      "Ġthen": 2905,
      "ĠWorld": 2906,
      "ived": 2907,
      "èĭ±åĽ½": 2908,
      "åĬŀåħ¬": 2909,
      "Ġtrans": 2910,
      "å»ºè®®": 2911,
      "uction": 2912,
      "å²Ĺ": 2913,
      "Ġgr": 2914,
      "è¯Ĺ": 2915,
      "å¹´åº¦": 2916,
      "åı°æ¹¾": 2917,
      "Ġinv": 2918,
      "arly": 2919,
      "è¸": 2920,
      "åĿĢ": 2921,
      "ounc": 2922,
      "å½ĵåľ°": 2923,
      "éķ¿æľŁ": 2924,
      "Ġso": 2925,
      "è¿Ĳè¡Į": 2926,
      "å¸¦æĿ¥": 2927,
      "æĢĢ": 2928,
      "è¶£": 2929,
      "Ġsuch": 2930,
      "ĠIs": 2931,
      "ç¦ģ": 2932,
      "éª¨": 2933,
      "æ»ĳ": 2934,
      "åħħåĪĨ": 2935,
      "ĠThis": 2936,
      "ĠCount": 2937,
      "çģ¯": 2938,
      "å®Įåħ¨": 2939,
      "ãĢĤâĢľ": 2940,
      "è¾ĳ": 2941,
      "æĸ¹åĲĳ": 2942,
      "è°ĥæķ´": 2943,
      "å¹¸": 2944,
      "æİªæĸ½": 2945,
      "ĠAust": 2946,
      "çĸ¾çĹħ": 2947,
      "çļĩ": 2948,
      "æĦıè§ģ": 2949,
      "è¯¾ç¨ĭ": 2950,
      "æķ°åŃĹ": 2951,
      "Ġrecord": 2952,
      "éĩıçļĦ": 2953,
      "åĩºäºĨ": 2954,
      "ç¬¦åĲĪ": 2955,
      "\",": 2956,
      "è´·": 2957,
      "èľ": 2958,
      "çī¹èī²": 2959,
      "çĳŀ": 2960,
      "stit": 2961,
      "å·¥èīº": 2962,
      "çĹĽ": 2963,
      "Ġthere": 2964,
      "åĢº": 2965,
      "ĠComm": 2966,
      "ron": 2967,
      "æīįèĥ½": 2968,
      "åıĳå±ķçļĦ": 2969,
      "çĪĨ": 2970,
      "åľĨ": 2971,
      "ĠCon": 2972,
      "Ġprov": 2973,
      "ural": 2974,
      "ä¹ĭåīį": 2975,
      "ç®Ģåįķ": 2976,
      "ternational": 2977,
      "ett": 2978,
      "æĮĩå¯¼": 2979,
      "é«ĺçļĦ": 2980,
      "ä¹Łæľī": 2981,
      "èıĮ": 2982,
      "Ġstr": 2983,
      "æ»¡è¶³": 2984,
      "æ¡£": 2985,
      "åĲĹ": 2986,
      "ä½ĵéªĮ": 2987,
      "èİ±": 2988,
      "Ġknown": 2989,
      "ĠBl": 2990,
      "ĠNational": 2991,
      "åĵ¥": 2992,
      "36": 2993,
      "è§ĦèĮĥ": 2994,
      "å®£ä¼ł": 2995,
      "åħ¶å®ŀ": 2996,
      "Ġent": 2997,
      "Ġthan": 2998,
      "åħĪè¿Ľ": 2999,
      "æĹĹ": 3000,
      "ĠJohn": 3001,
      "éĩİ": 3002,
      "ç½²": 3003,
      "æ´ģ": 3004,
      "Ġam": 3005,
      "æ¶Īè´¹èĢħ": 3006,
      "æ¾³": 3007,
      "ç¨ĭåºı": 3008,
      "æĺ¯ä¸Ģç§į": 3009,
      "ç©¿": 3010,
      "ĠMay": 3011,
      "å®īè£ħ": 3012,
      "ĠPr": 3013,
      "éĤ®": 3014,
      "âĢĿãĢģ": 3015,
      "ĠJan": 3016,
      "åħ¬åħ±": 3017,
      "Ġexp": 3018,
      "åİĭåĬĽ": 3019,
      "æĸ°éĹ»": 3020,
      "å¾Ħ": 3021,
      "æĺł": 3022,
      "åĿĲ": 3023,
      "Ġbecame": 3024,
      "å¯»": 3025,
      "èº«ä½ĵ": 3026,
      "æīĵéĢł": 3027,
      "ä¾§": 3028,
      "æľºä¼ļ": 3029,
      "åĪĽéĢł": 3030,
      "èĳ£": 3031,
      "fore": 3032,
      "ĠPl": 3033,
      "ä¸ĸçºª": 3034,
      "èĴĻ": 3035,
      "ä½łçļĦ": 3036,
      "Ġ195": 3037,
      "æĹ¢": 3038,
      "ä»Ĭå¤©": 3039,
      "æĿ¯": 3040,
      "its": 3041,
      "å®«": 3042,
      "çİī": 3043,
      "åı¦å¤ĸ": 3044,
      "ise": 3045,
      "çĴ": 3046,
      "Ġschool": 3047,
      "lev": 3048,
      "éĽħ": 3049,
      "åĸľæ¬¢": 3050,
      "è¿Ĳè¾ĵ": 3051,
      "çĦ¶åĲİ": 3052,
      "æĺİæĺ¾": 3053,
      "åĭĴ": 3054,
      "è´¥": 3055,
      "Ch": 3056,
      "éĽª": 3057,
      "åĩºçļĦ": 3058,
      "ä¸įå¾Ĺ": 3059,
      "ç¡®å®ļ": 3060,
      "åĳĪ": 3061,
      "ä¼¯": 3062,
      "æķ´ä¸ª": 3063,
      "yp": 3064,
      "Ġestab": 3065,
      "ars": 3066,
      "ä¸įè¦ģ": 3067,
      "åĮĸçļĦ": 3068,
      "è¶ĬæĿ¥": 3069,
      "åĲ§": 3070,
      "é¼ĵ": 3071,
      "æ´¥": 3072,
      "å¹¶ä¸į": 3073,
      "ert": 3074,
      "é¡¿": 3075,
      "çħ¤": 3076,
      "ae": 3077,
      "å¼ĢæĶ¾": 3078,
      "è¶ĬæĿ¥è¶Ĭ": 3079,
      "è·µ": 3080,
      "Ġmed": 3081,
      "èªī": 3082,
      "ä¸įåĲĮçļĦ": 3083,
      "arn": 3084,
      "Ġbl": 3085,
      "ä»»åĬ¡": 3086,
      "Ġrep": 3087,
      "æķ´ä½ĵ": 3088,
      "ä¸»ä»»": 3089,
      "è´´": 3090,
      "ute": 3091,
      "åĲ¨": 3092,
      "urch": 3093,
      "å®ĮåĸĦ": 3094,
      "Ġsome": 3095,
      "ĠBrit": 3096,
      "åĴ¨": 3097,
      "éĴĪå¯¹": 3098,
      "Ġmon": 3099,
      "other": 3100,
      "ä¸įåı¯": 3101,
      "ç§ģ": 3102,
      "ike": 3103,
      "stem": 3104,
      "èĨľ": 3105,
      "æĸĩä»¶": 3106,
      "èµĦæł¼": 3107,
      "çĥŁ": 3108,
      "196": 3109,
      "2014": 3110,
      "ments": 3111,
      "ve": 3112,
      "æĭŁ": 3113,
      "æ¶¨": 3114,
      "åĽłç´ł": 3115,
      "Ġlead": 3116,
      "Ġpop": 3117,
      "let": 3118,
      "ĠAs": 3119,
      "Ġ194": 3120,
      "ister": 3121,
      "Ġbeing": 3122,
      "Ġdo": 3123,
      "Ġfour": 3124,
      "åĲĪåĲĮ": 3125,
      "ä¸¾è¡Į": 3126,
      "åĮĸåŃ¦": 3127,
      "ays": 3128,
      "Ġ16": 3129,
      "Ġseries": 3130,
      "ç³ĸ": 3131,
      "èĥŀ": 3132,
      "åģļå¥½": 3133,
      "|-": 3134,
      "è´Ŀ": 3135,
      "Ġgroup": 3136,
      "ĠAt": 3137,
      "åºĦ": 3138,
      "Ġcall": 3139,
      "ä¸¾åĬŀ": 3140,
      "åıĳæĮ¥": 3141,
      "ä¸ªæľĪ": 3142,
      "çĶŁåĳ½": 3143,
      "çļĦäºĭ": 3144,
      "æĮĳ": 3145,
      "å·¦åı³": 3146,
      "æİĮ": 3147,
      "è·¨": 3148,
      "ç§ĺ": 3149,
      "åĴ¨è¯¢": 3150,
      "ä¸»ä¹ī": 3151,
      "els": 3152,
      "ĠEd": 3153,
      "ä¸Ĭå¸Ĥ": 3154,
      "æħ§": 3155,
      "Ġ15": 3156,
      "ces": 3157,
      "åŁºåľ°": 3158,
      "åı«": 3159,
      "ampions": 3160,
      "ather": 3161,
      "å¼¹": 3162,
      "çĽĳçĿ£": 3163,
      "åĬłåħ¥": 3164,
      "çĽ®çļĦ": 3165,
      "åĲİçļĦ": 3166,
      "åĨ°": 3167,
      "Ġsong": 3168,
      "Ġwell": 3169,
      "Ġinc": 3170,
      "St": 3171,
      "æļĸ": 3172,
      "æĹ¶æľŁ": 3173,
      "ĠPh": 3174,
      "è¡ĮåĬ¨": 3175,
      "ution": 3176,
      "è¯¯": 3177,
      "uk": 3178,
      "æĲŃ": 3179,
      "åĿı": 3180,
      "ç¡®ä¿Ŀ": 3181,
      "è§Ĩé¢ĳ": 3182,
      "èļ": 3183,
      "æ²¿": 3184,
      "åĳ¼": 3185,
      "è¶ĭ": 3186,
      "æ¢ħ": 3187,
      "33": 3188,
      "aid": 3189,
      "±ä¹Ĳ": 3190,
      "ull": 3191,
      "æī¬": 3192,
      "è¡£": 3193,
      "åı¬": 3194,
      "ç§°ä¸º": 3195,
      "ĊĊĊĊ": 3196,
      "å¦Ī": 3197,
      "çº·": 3198,
      "Ġagainst": 3199,
      "195": 3200,
      "Ġint": 3201,
      "til": 3202,
      "ç¨ĭåº¦": 3203,
      "æ¶Ĥ": 3204,
      "ĠAd": 3205,
      "éĺµ": 3206,
      "æļ´": 3207,
      "ians": 3208,
      "æ³ķåĽ½": 3209,
      "eptember": 3210,
      "my": 3211,
      "Ġdeath": 3212,
      "Ġincluding": 3213,
      "ç¼ĵ": 3214,
      "æı¡": 3215,
      "èģĶç³»": 3216,
      "ets": 3217,
      "è¿ĩåİ»": 3218,
      "ology": 3219,
      "ĠGerman": 3220,
      "åı¥": 3221,
      "å§Ĩ": 3222,
      "æĻ®éĢļ": 3223,
      "æĶ¹åıĺ": 3224,
      "éĺ»": 3225,
      "ç¬ĳ": 3226,
      "æ²ī": 3227,
      "born": 3228,
      "çº¯": 3229,
      "èĽĭ": 3230,
      "Ġmin": 3231,
      "çī¹çĤ¹": 3232,
      "çĲĨå¿µ": 3233,
      "ugust": 3234,
      "èĵĿ": 3235,
      "ç¥ĸ": 3236,
      "by": 3237,
      "Ġme": 3238,
      "è°·": 3239,
      "çļĦéĹ®é¢ĺ": 3240,
      "éĵģè·¯": 3241,
      "çĬ¶æĢģ": 3242,
      "æ½®": 3243,
      "æ¸©åº¦": 3244,
      "åĶĲ": 3245,
      "æĽ¼": 3246,
      "èĦļ": 3247,
      "arri": 3248,
      "çļĦéĩįè¦ģ": 3249,
      "èĢĥèĻĳ": 3250,
      "areer": 3251,
      "å¹³åĿĩ": 3252,
      "ĠSouth": 3253,
      "éķľ": 3254,
      "ox": 3255,
      "ä»İèĢĮ": 3256,
      "ç§ĭ": 3257,
      "38": 3258,
      "ç¯ĩ": 3259,
      "èĤ¤": 3260,
      "æĤī": 3261,
      "ĠNov": 3262,
      "ĠSchool": 3263,
      "åĪº": 3264,
      "ĠCan": 3265,
      "çģ¾": 3266,
      "ĠJu": 3267,
      "åħ¼": 3268,
      "ows": 3269,
      "ĠOr": 3270,
      "ä¾ĽåºĶ": 3271,
      "æĢİä¹Ī": 3272,
      "com": 3273,
      "ä¿Ħ": 3274,
      "çļĦæĥħåĨµ": 3275,
      "èĤ¡ä»½": 3276,
      "åıªæĺ¯": 3277,
      "éĢļçŁ¥": 3278,
      "åĺī": 3279,
      "ç¤¾åĮº": 3280,
      "è¾ĸ": 3281,
      "2010": 3282,
      "çĲĨè®º": 3283,
      "æľºåħ³": 3284,
      "ä»İäºĭ": 3285,
      "rist": 3286,
      "very": 3287,
      "æķĻæİĪ": 3288,
      "ç©ºæ°Ķ": 3289,
      "Ġadd": 3290,
      "æ²Ł": 3291,
      "éĥ½æľī": 3292,
      "ica": 3293,
      "velop": 3294,
      "åľĪ": 3295,
      "æģ¶": 3296,
      "ĠDec": 3297,
      "çī©æµģ": 3298,
      "æ®Ĭ": 3299,
      "ç»¿èī²": 3300,
      "ĠYork": 3301,
      "Ġsur": 3302,
      "ä¹Łä¸į": 3303,
      "ĠCounty": 3304,
      "è´¡": 3305,
      "åĢį": 3306,
      "Ġcount": 3307,
      "ained": 3308,
      "overnment": 3309,
      "åĦ¿ç«¥": 3310,
      "ives": 3311,
      "eng": 3312,
      "æĺİç¡®": 3313,
      "æĿ°": 3314,
      "37": 3315,
      "Ġbefore": 3316,
      "ä¾ĭå¦Ĥ": 3317,
      "ctober": 3318,
      "çĥ§": 3319,
      "èĲ½å®ŀ": 3320,
      "æ¬§æ´²": 3321,
      "Ġwhile": 3322,
      "éĢŁåº¦": 3323,
      "æ¹¿": 3324,
      "éĺħ": 3325,
      "æŃ£å¸¸": 3326,
      "æ³¥": 3327,
      "Ġrece": 3328,
      "Ġdevelop": 3329,
      "amed": 3330,
      "å°±ä¼ļ": 3331,
      "2013": 3332,
      "è·ĳ": 3333,
      "ç»Łè®¡": 3334,
      "Ġpolit": 3335,
      "Ġem": 3336,
      "èĻļ": 3337,
      "æľĢé«ĺ": 3338,
      "æ¼«": 3339,
      "ãĢĭãĢģ": 3340,
      "ĠSeptember": 3341,
      "å¢Ļ": 3342,
      "æĢĿæĥ³": 3343,
      "Ġsign": 3344,
      "eth": 3345,
      "ĠTr": 3346,
      "2000": 3347,
      "åħ¨éĥ¨": 3348,
      "è£ģ": 3349,
      "è¿·": 3350,
      "ium": 3351,
      "éļĲ": 3352,
      "elf": 3353,
      "æĳ©": 3354,
      "éĩĳå±ŀ": 3355,
      "ç£¨": 3356,
      "çļĦå·¥ä½ľ": 3357,
      "Ġbro": 3358,
      "æľĹ": 3359,
      "çĦ¶èĢĮ": 3360,
      "æĭĵ": 3361,
      "æĪĲåĳĺ": 3362,
      "itt": 3363,
      "ç¿»": 3364,
      "éģ¿åħį": 3365,
      "500": 3366,
      "è¯Ńè¨Ģ": 3367,
      "Ġmod": 3368,
      "åĩĨå¤ĩ": 3369,
      "ä¹Į": 3370,
      "æķ°éĩı": 3371,
      "éĩįè¦ģçļĦ": 3372,
      "æĬĵ": 3373,
      "Ġmay": 3374,
      "æĿ¥çľĭ": 3375,
      "Ġbuild": 3376,
      "led": 3377,
      "åĪĽä¸ļ": 3378,
      "é©¾": 3379,
      "åľ³": 3380,
      "æĮĩåĩº": 3381,
      "å¼ķèµ·": 3382,
      "ized": 3383,
      "ä¸įå°ĳ": 3384,
      "çī©è´¨": 3385,
      "Ġmusic": 3386,
      "æ¢ģ": 3387,
      "ĠAugust": 3388,
      "Ġgo": 3389,
      "ient": 3390,
      "å¾·åĽ½": 3391,
      "æ½ľ": 3392,
      "è¦": 3393,
      "Ġoffic": 3394,
      "ĠCent": 3395,
      "æĭħä»»": 3396,
      "èµ¢": 3397,
      "owever": 3398,
      "arm": 3399,
      "åĩĿ": 3400,
      "ital": 3401,
      "ä¸¹": 3402,
      "åģı": 3403,
      "æľĢå¤§": 3404,
      "Ġmany": 3405,
      "æ°ı": 3406,
      "ç§»åĬ¨": 3407,
      "åįģåĪĨ": 3408,
      "fess": 3409,
      "æķĪçİĩ": 3410,
      "æµª": 3411,
      "åİ»å¹´": 3412,
      "ĠMarch": 3413,
      "2012": 3414,
      "ç»Ĩèĥŀ": 3415,
      "Ġappear": 3416,
      "Ġcap": 3417,
      "æ·±åľ³": 3418,
      "34": 3419,
      "èī¯å¥½çļĦ": 3420,
      "Ġnumber": 3421,
      "eed": 3422,
      "åĨ¬": 3423,
      "ç½ļ": 3424,
      "åĬŀæ³ķ": 3425,
      "Ġbirths": 3426,
      "åĢĴ": 3427,
      "Ġoper": 3428,
      "çľŁæŃ£": 3429,
      "æŃ¤æ¬¡": 3430,
      "pril": 3431,
      "åĨħçļĦ": 3432,
      "Ġmain": 3433,
      "ä½įç½®": 3434,
      "å®ŀè·µ": 3435,
      "æ¯Ķå¦Ĥ": 3436,
      "éĹŃ": 3437,
      "39": 3438,
      "åľŁåľ°": 3439,
      "å¯¿": 3440,
      "èĤ¥": 3441,
      "uth": 3442,
      "åĲ´": 3443,
      "éĵĿ": 3444,
      "èĩªèº«": 3445,
      "lege": 3446,
      "éĢļå¸¸": 3447,
      "Ġfamily": 3448,
      "äººç±»": 3449,
      "ä¾µ": 3450,
      "éĩįå¤§": 3451,
      "2021": 3452,
      "ç¼ĺ": 3453,
      "åŃĶ": 3454,
      "åĩºåı£": 3455,
      "å®īæİĴ": 3456,
      "å±±ä¸ľ": 3457,
      "Ġhigh": 3458,
      "ired": 3459,
      "è¦Ĩ": 3460,
      "æĪĲæŀľ": 3461,
      "ĠOctober": 3462,
      "Ġown": 3463,
      "Ġuntil": 3464,
      "oman": 3465,
      "è¯¦": 3466,
      "èĤ¯": 3467,
      "æĦıè¯Ĩ": 3468,
      "åĵģè´¨": 3469,
      "ty": 3470,
      "wards": 3471,
      "æµĭè¯ķ": 3472,
      "Ġorig": 3473,
      "ç»ĵæĿŁ": 3474,
      "fl": 3475,
      "Ġno": 3476,
      "æľ¬æ¬¡": 3477,
      "èĦĤ": 3478,
      "Ġboth": 3479,
      "æµĻ": 3480,
      "ä¹¦è®°": 3481,
      "åĪ¶å®ļ": 3482,
      "ä¸ºä¸»": 3483,
      "istor": 3484,
      "èĢĹ": 3485,
      "äº¡": 3486,
      "çļĦå°ı": 3487,
      "embers": 3488,
      "æľīä¸Ģ": 3489,
      "erg": 3490,
      "æľºåĪ¶": 3491,
      "åıįåºĶ": 3492,
      "åĬĽéĩı": 3493,
      "å®¿": 3494,
      "éľĩ": 3495,
      "çĺ": 3496,
      "æĬĺ": 3497,
      "åĲĪçĲĨ": 3498,
      "å¼Ł": 3499,
      "Ġdr": 3500,
      "å¹¿ä¸ľ": 3501,
      "å¹¿å·ŀ": 3502,
      "ior": 3503,
      "gram": 3504,
      "ĠAustral": 3505,
      "oo": 3506,
      "ï½": 3507,
      "Ġchar": 3508,
      "æĬ¥åĲį": 3509,
      "éģį": 3510,
      "è¿ħ": 3511,
      "å¹¿åĳĬ": 3512,
      "ä½ĵçļĦ": 3513,
      "au": 3514,
      "ç¹": 3515,
      "ä¼Ļ": 3516,
      "éĽĨä¸Ń": 3517,
      "è´¹çĶ¨": 3518,
      "åħ¬åı¸çļĦ": 3519,
      "the": 3520,
      "ants": 3521,
      "è¿ŀç»Ń": 3522,
      "âĢĿãĢģâĢľ": 3523,
      "å°¤åħ¶": 3524,
      "å¤ļä¸ª": 3525,
      "ott": 3526,
      "å¿ĥçĲĨ": 3527,
      "æı´": 3528,
      "èħĲ": 3529,
      "åħ¬å¸ĥ": 3530,
      "æī¶": 3531,
      "isc": 3532,
      "ĠGr": 3533,
      "ĠGe": 3534,
      "Ġplayed": 3535,
      "ä¸ģ": 3536,
      "ç»´æĬ¤": 3537,
      "ä¸¥æł¼": 3538,
      "ç¹ģ": 3539,
      "ĠJanuary": 3540,
      "ery": 3541,
      "åĶ¯": 3542,
      "2011": 3543,
      "Ġdesc": 3544,
      "Ġname": 3545,
      "urop": 3546,
      "å«": 3547,
      "è§īå¾Ĺ": 3548,
      "åķĨåĵģ": 3549,
      "Ġback": 3550,
      "48": 3551,
      "æĦıä¹ī": 3552,
      "èİ«": 3553,
      "è¾ħ": 3554,
      "éº¦": 3555,
      "=\"": 3556,
      "ç¢³": 3557,
      "æĬķåħ¥": 3558,
      "èĩªçĶ±": 3559,
      "åĪĨä¸º": 3560,
      "ä¼Ł": 3561,
      "ampionship": 3562,
      "è¡¡": 3563,
      "å¾ª": 3564,
      "äºĭä»¶": 3565,
      "æĩ": 3566,
      "urr": 3567,
      "æ°ĳæĹı": 3568,
      "ĠJune": 3569,
      "åįĩçº§": 3570,
      "Ġreleased": 3571,
      "ç»ıçĲĨ": 3572,
      "Ġcre": 3573,
      "ains": 3574,
      "åĬĽçļĦ": 3575,
      "åĴĮåĽ½": 3576,
      "éĥ½ä¼ļ": 3577,
      "æ¬¢è¿İ": 3578,
      "ĠâĢľ": 3579,
      "æµĵ": 3580,
      "å¼±": 3581,
      "å¤§åŀĭ": 3582,
      "å¹´ä»£": 3583,
      "century": 3584,
      "å®£å¸ĥ": 3585,
      "ç»ıå¸¸": 3586,
      "ç»ķ": 3587,
      "èĳ£äºĭ": 3588,
      "ebr": 3589,
      "åŃĻ": 3590,
      "ĠâĢĶ": 3591,
      "åıĳè¡Į": 3592,
      "Ġgu": 3593,
      "é©¶": 3594,
      "å¤ļçļĦ": 3595,
      "è¿Ļæł·çļĦ": 3596,
      "åį·": 3597,
      "Ġdep": 3598,
      "ung": 3599,
      "iet": 3600,
      "å®¾": 3601,
      "èĪªç©º": 3602,
      "èĬĤçĽ®": 3603,
      "ission": 3604,
      "è¡¨éĿ¢": 3605,
      "ĠAss": 3606,
      "éģŃ": 3607,
      "æĪĲéķ¿": 3608,
      "Ġann": 3609,
      "å°±ä¸ļ": 3610,
      "ç»Łä¸Ģ": 3611,
      "imes": 3612,
      "çĽ¸å¯¹": 3613,
      "ĠApril": 3614,
      "éĿ¢å¯¹": 3615,
      "èĢ³": 3616,
      "çĶµè¯Ŀ": 3617,
      "è¿Ľè¡ĮäºĨ": 3618,
      "ages": 3619,
      "ently": 3620,
      "å®ĥä»¬": 3621,
      "atch": 3622,
      "ata": 3623,
      "32": 3624,
      "Ġdesign": 3625,
      "uced": 3626,
      "é¾Ħ": 3627,
      "ä¸ĭçļĦ": 3628,
      "Ġsever": 3629,
      "è½´": 3630,
      "æĬ¥éģĵ": 3631,
      "å±ħæ°ĳ": 3632,
      "Ġdif": 3633,
      "ered": 3634,
      "å¦ĤæŃ¤": 3635,
      "ãĢĭï¼Ī": 3636,
      "ĠJuly": 3637,
      "åĪĬ": 3638,
      "è´Ńä¹°": 3639,
      "ä¼į": 3640,
      "æģ¢": 3641,
      "éĢĴ": 3642,
      "éļĨ": 3643,
      "åĭĩ": 3644,
      "ret": 3645,
      "Ġbr": 3646,
      "çĦ¦": 3647,
      "èµĦæľ¬": 3648,
      "éĥĳ": 3649,
      "çİ»": 3650,
      "æĸ¹ä¾¿": 3651,
      "æĮ¯": 3652,
      "Ġph": 3653,
      "ĠLeague": 3654,
      "ajor": 3655,
      "æĥĬ": 3656,
      "ä¹±": 3657,
      "ãģ": 3658,
      "ĠBritish": 3659,
      "æľīäºĽ": 3660,
      "ross": 3661,
      "ç§ĳçłĶ": 3662,
      "Ġorgan": 3663,
      "ved": 3664,
      "ä»ĸä»¬çļĦ": 3665,
      "å²¸": 3666,
      "å±ı": 3667,
      "åĪ©æ¶¦": 3668,
      "åĨľæĿĳ": 3669,
      "ä¼ĺè´¨": 3670,
      "ĠGu": 3671,
      "é«ĺéĢŁ": 3672,
      "icip": 3673,
      "çĭ¬ç«ĭ": 3674,
      "å¼ĥ": 3675,
      "çıł": 3676,
      "Ġwon": 3677,
      "See": 3678,
      "eal": 3679,
      "por": 3680,
      "af": 3681,
      "ues": 3682,
      "å±ķç¤º": 3683,
      "inc": 3684,
      "Ġvar": 3685,
      "ird": 3686,
      "æ¯ıä¸ª": 3687,
      "é«ĺåº¦": 3688,
      "yn": 3689,
      "è·Ŀç¦»": 3690,
      "ĠNovember": 3691,
      "Ġsystem": 3692,
      "On": 3693,
      "ĠWh": 3694,
      "Ġfeat": 3695,
      "é¢ľ": 3696,
      "Ġstart": 3697,
      "å¤§ä¼ļ": 3698,
      "åħĪçĶŁ": 3699,
      "éģĵè·¯": 3700,
      "å¢ŀå¼º": 3701,
      "åŁĥ": 3702,
      "ris": 3703,
      "åı¦ä¸Ģ": 3704,
      "åħ¬è·¯": 3705,
      "Ġlife": 3706,
      "æ·±åħ¥": 3707,
      "min": 3708,
      "æķı": 3709,
      "çĲĥéĺŁ": 3710,
      "Ġob": 3711,
      "ony": 3712,
      "è½¨": 3713,
      "Ġfilms": 3714,
      "é¦ĸåħĪ": 3715,
      "ä¸Ģå¹´": 3716,
      "æ³¡": 3717,
      "çī¹æ®Ĭ": 3718,
      "æ©": 3719,
      "apan": 3720,
      "å¤ļæķ°": 3721,
      "ãĥ": 3722,
      "æĽ¿": 3723,
      "é¥Ń": 3724,
      "è¯¸": 3725,
      "ines": 3726,
      "å¥ĭ": 3727,
      "resident": 3728,
      "Ġformer": 3729,
      "è¯´æĺİ": 3730,
      "ple": 3731,
      "ket": 3732,
      "ove": 3733,
      "è´¯": 3734,
      "ĠII": 3735,
      "æį·": 3736,
      "éĩĩåıĸ": 3737,
      "æģ¢å¤į": 3738,
      "æıı": 3739,
      "âĢĺ": 3740,
      "åĿ¦": 3741,
      "çĴĥ": 3742,
      "ĠDecember": 3743,
      "ç¬¬åĽĽ": 3744,
      "æĻºæħ§": 3745,
      "Ġsm": 3746,
      "èµŀ": 3747,
      "ĠNorth": 3748,
      "å½»": 3749,
      "osed": 3750,
      "æ°§åĮĸ": 3751,
      "æ¯«": 3752,
      "çªĹ": 3753,
      "æľºåĻ¨": 3754,
      "ĠCity": 3755,
      "ĠCar": 3756,
      "åĲĮåŃ¦": 3757,
      "mm": 3758,
      "è´¸æĺĵ": 3759,
      "æİ¨å¹¿": 3760,
      "ç±į": 3761,
      "æľĢä½³": 3762,
      "å¡«": 3763,
      "çļĦè¯Ŀ": 3764,
      "Ġext": 3765,
      "Ġopen": 3766,
      "æ³ī": 3767,
      "é¢Ħè®¡": 3768,
      "éĢĲæ¸Ĳ": 3769,
      "ä¸ľè¥¿": 3770,
      "åĬ¨åĬĽ": 3771,
      "å®ĩ": 3772,
      "ually": 3773,
      "ä¼ģä¸ļçļĦ": 3774,
      "Ã¡": 3775,
      "Ġlong": 3776,
      "ä¹Ļ": 3777,
      "åħ·å¤ĩ": 3778,
      "åĲĦç±»": 3779,
      "æĲľ": 3780,
      "ä¸Ģä¸ĭ": 3781,
      "çĽĲ": 3782,
      "amb": 3783,
      "Ġ.": 3784,
      "çĽĳç®¡": 3785,
      "æĶ¹åĸĦ": 3786,
      "yl": 3787,
      "èĥ¡": 3788,
      "åĪ©äºļ": 3789,
      "ause": 3790,
      "æĬĢèĥ½": 3791,
      "ãĢĭãĢģãĢĬ": 3792,
      "éĩįæĸ°": 3793,
      "oard": 3794,
      "ĠMan": 3795,
      ")ï¼Į": 3796,
      "yle": 3797,
      "Ġrun": 3798,
      "ography": 3799,
      "æĦŁè§ī": 3800,
      "Ġpublic": 3801,
      "å¦ĩ": 3802,
      "Ġwill": 3803,
      "è¯ĳ": 3804,
      "æ¤įçī©": 3805,
      "è¯ģæĺİ": 3806,
      "éĢĤåĲĪ": 3807,
      "åįıè®®": 3808,
      "è¯Ħä»·": 3809,
      "American": 3810,
      "ham": 3811,
      "å·¥åħ·": 3812,
      "åİŁåĪĻ": 3813,
      "çĽ¸å½ĵ": 3814,
      "æĭĶ": 3815,
      "æ¯ıå¤©": 3816,
      "rod": 3817,
      "ĠPol": 3818,
      "è±ª": 3819,
      "åıªè¦ģ": 3820,
      "å¤§éĩı": 3821,
      "ebruary": 3822,
      "åĨįæ¬¡": 3823,
      "å®ĥçļĦ": 3824,
      "99": 3825,
      "ĠAll": 3826,
      "vent": 3827,
      "å¤ļç§į": 3828,
      "åĪĽä½ľ": 3829,
      "ĠCal": 3830,
      "èĭĹ": 3831,
      "åĩ¡": 3832,
      "å¹¼": 3833,
      "æ±Łèĭı": 3834,
      "çĽ¸æ¯Ķ": 3835,
      "æĬµ": 3836,
      "åĮ»åŃ¦": 3837,
      "æĶ¯ä»ĺ": 3838,
      "ï¼İ": 3839,
      "è´¡çĮ®": 3840,
      "åĲ¸å¼ķ": 3841,
      "æĹłè®º": 3842,
      "ä»ģ": 3843,
      "éī": 3844,
      "ilit": 3845,
      "Ġcalled": 3846,
      "å¹´è½»": 3847,
      "åħ±åĴĮåĽ½": 3848,
      "Ġgame": 3849,
      "è§Ĥä¼Ĺ": 3850,
      "ility": 3851,
      "orks": 3852,
      "æİ¨åĩº": 3853,
      "åĨħéĥ¨": 3854,
      "çļ®èĤ¤": 3855,
      "åĲĦåľ°": 3856,
      "éī´": 3857,
      "æµĻæ±Ł": 3858,
      "Ġstate": 3859,
      "ĠRep": 3860,
      "ä¹Łä¼ļ": 3861,
      "çŀ": 3862,
      "ĠEurop": 3863,
      "æľĢå¤§çļĦ": 3864,
      "åĩŃ": 3865,
      "åĽ°éļ¾": 3866,
      "åĪĳ": 3867,
      "èį·": 3868,
      "Ġsame": 3869,
      "åĩºçīĪ": 3870,
      "ĠX": 3871,
      "aking": 3872,
      "çİ»çĴĥ": 3873,
      "ç¬¬åįģ": 3874,
      "è¿ŀæİ¥": 3875,
      "ĠReg": 3876,
      "æ³ķéĻ¢": 3877,
      "oint": 3878,
      "ç»ıåİĨ": 3879,
      "æĮĤ": 3880,
      "ilt": 3881,
      "é©»": 3882,
      "ĠKing": 3883,
      "æģĴ": 3884,
      "levision": 3885,
      "âĢ¦âĢ¦": 3886,
      "å¢¨": 3887,
      "çĲĨè§£": 3888,
      "æ¯ıå¹´": 3889,
      "Ġarea": 3890,
      "aly": 3891,
      "è´¢æĶ¿": 3892,
      "Ġfinal": 3893,
      "2008": 3894,
      "Ġ12": 3895,
      "echn": 3896,
      "ator": 3897,
      "æ³½": 3898,
      "éĿĴå¹´": 3899,
      "rench": 3900,
      "åħ¬åĽŃ": 3901,
      "äººå£«": 3902,
      "ible": 3903,
      "Ġpar": 3904,
      "ĠAf": 3905,
      "194": 3906,
      "æľºåľº": 3907,
      "ĠState": 3908,
      "ange": 3909,
      "ience": 3910,
      "Ġwomen": 3911,
      "ĠPar": 3912,
      "è¿¹": 3913,
      "çĶŁçļĦ": 3914,
      "2009": 3915,
      "orm": 3916,
      "çĶµæ±ł": 3917,
      "æ¶Īæģ¯": 3918,
      "éĩįåºĨ": 3919,
      "Ġ14": 3920,
      "åĬ¨çī©": 3921,
      "lor": 3922,
      "æļĤ": 3923,
      "Ġfin": 3924,
      "åľ°äº§": 3925,
      "åĲįçļĦ": 3926,
      "çŃ¹": 3927,
      "è¯ģåĪ¸": 3928,
      "è¶ĭåĬ¿": 3929,
      "reen": 3930,
      "æ¥ļ": 3931,
      "Ġseveral": 3932,
      "çļĦå½±åĵį": 3933,
      "ç¾¤ä¼Ĺ": 3934,
      "åĿ¡": 3935,
      "75": 3936,
      "ful": 3937,
      "ĠWill": 3938,
      "éĤ¦": 3939,
      "Ġrev": 3940,
      "Ġcareer": 3941,
      "è¿Ķ": 3942,
      "æ¦ľ": 3943,
      "ulation": 3944,
      "Ġreturn": 3945,
      "ä¸Ńå°ı": 3946,
      "äº§åĵģçļĦ": 3947,
      "Ġfollowing": 3948,
      "å°Ĭ": 3949,
      "å°¾": 3950,
      "åĲĮæł·": 3951,
      "åĨłåĨĽ": 3952,
      "Ġ'": 3953,
      "è®¾ç½®": 3954,
      "Ġair": 3955,
      "onom": 3956,
      "éĺ´": 3957,
      "angu": 3958,
      "åĩºæĿ¥": 3959,
      "éĤĢ": 3960,
      "å¤Ħäºİ": 3961,
      "ĠEx": 3962,
      "èµı": 3963,
      "é¦ĸæ¬¡": 3964,
      "åıĳè¡¨": 3965,
      "ãĢĳ": 3966,
      "æ¯Ķä¾ĭ": 3967,
      "ãĢĲ": 3968,
      "lished": 3969,
      "Ġbas": 3970,
      "ĠCo": 3971,
      "ured": 3972,
      "ä¹ĭéĹ´çļĦ": 3973,
      "ç½Ĺæĸ¯": 3974,
      "å¥¶": 3975,
      "è½¦è¾Ĩ": 3976,
      "Ġsuc": 3977,
      "ially": 3978,
      "å®ĭ": 3979,
      "Ġlist": 3980,
      "åĲİæĿ¥": 3981,
      "è´·æ¬¾": 3982,
      "éº»": 3983,
      "ices": 3984,
      "ĠBro": 3985,
      "æĺĮ": 3986,
      "ech": 3987,
      "æĸĩæĺİ": 3988,
      "Ġnear": 3989,
      "ä¸įåĪ°": 3990,
      "åĿĽ": 3991,
      "Ġearly": 3992,
      "Ġclass": 3993,
      "hes": 3994,
      "å°ĺ": 3995,
      "Ġcontin": 3996,
      "å½ĵçĦ¶": 3997,
      "èĢħçļĦ": 3998,
      "æĪ´": 3999,
      "åķĨåĬ¡": 4000,
      "é»ĺ": 4001,
      "ç²Ĵ": 4002,
      "çĶ¨çļĦ": 4003,
      "Ġdisc": 4004,
      "æķ¬": 4005,
      "ĠMin": 4006,
      "Ġcommun": 4007,
      "ĠFebruary": 4008,
      "ä¸īä¸ª": 4009,
      "åıĬåħ¶": 4010,
      "éĵľ": 4011,
      "Al": 4012,
      "ourn": 4013,
      "ke": 4014,
      "èµµ": 4015,
      "çĽ¸ä¿¡": 4016,
      "ĠCanad": 4017,
      "åıĮæĸ¹": 4018,
      "è®¤è¯Ĩ": 4019,
      "åĬłå¿«": 4020,
      "ĠAm": 4021,
      "ç«Ł": 4022,
      "ä»¥åĲİ": 4023,
      "è®¤è¯ģ": 4024,
      "åįĬå¹´": 4025,
      "æĿ¥æºĲ": 4026,
      "Ġchild": 4027,
      "å°º": 4028,
      "åĪ·": 4029,
      "ç±»åŀĭ": 4030,
      "ised": 4031,
      "æİī": 4032,
      "Ġsupport": 4033,
      "ally": 4034,
      "è´Łè´£äºº": 4035,
      "è®°å½ķ": 4036,
      "earch": 4037,
      "ï¼Īï¼ī": 4038,
      "åįļå£«": 4039,
      "ode": 4040,
      "è¿ģ": 4041,
      "Ġ2010": 4042,
      "ued": 4043,
      "èĲ¥éĶĢ": 4044,
      "Ġsince": 4045,
      "ival": 4046,
      "åĳĬè¯ī": 4047,
      "è½¦ç«Ļ": 4048,
      "åŃ¦ç§ĳ": 4049,
      "):": 4050,
      "è´¦": 4051,
      "å§ĵ": 4052,
      "åĽĽå·Ŀ": 4053,
      "å·¥ä½ľçļĦ": 4054,
      "éĨĴ": 4055,
      "Ġresp": 4056,
      "æ¶īåıĬ": 4057,
      "å¥³æĢ§": 4058,
      "åģ¿": 4059,
      "ky": 4060,
      "col": 4061,
      "çİ°è±¡": 4062,
      "é¢Ĺ": 4063,
      "ä¼ļè®¡": 4064,
      "ç¯®": 4065,
      "çĶĺ": 4066,
      "èº«ä»½": 4067,
      "æĮĳæĪĺ": 4068,
      "55": 4069,
      "cept": 4070,
      "300": 4071,
      "aces": 4072,
      "ane": 4073,
      "aining": 4074,
      "æº¶": 4075,
      "çĹħæ¯Ĵ": 4076,
      "å¤ªéĺ³": 4077,
      "Ġthese": 4078,
      "Ġcompet": 4079,
      "ana": 4080,
      "é£İæł¼": 4081,
      "æĥ¯": 4082,
      "å¹¿å¤§": 4083,
      "æİĴåĲį": 4084,
      "ended": 4085,
      "èı²": 4086,
      "çļĦäº§åĵģ": 4087,
      "èĤº": 4088,
      "Ġdescrib": 4089,
      "èĪĴ": 4090,
      "è±Ĩ": 4091,
      "æĲº": 4092,
      "éĩįè§Ĩ": 4093,
      "æĹ¥å¸¸": 4094,
      "æĸĩç«ł": 4095,
      "å·ŀå¸Ĥ": 4096,
      "å¹³æĸ¹ç±³": 4097,
      "æĪªèĩ³": 4098,
      "å²Ĺä½į": 4099,
      "èŀįåĲĪ": 4100,
      "ä¼ĺåĮĸ": 4101,
      "ner": 4102,
      "è°ģ": 4103,
      "Ġbel": 4104,
      "ï½ŀ": 4105,
      "è®Ńç»ĥ": 4106,
      "Ġhead": 4107,
      "äººå·¥": 4108,
      "Ġprogram": 4109,
      "å°Ĩåľ¨": 4110,
      "åĸ·": 4111,
      "çļĦæĸ¹å¼ı": 4112,
      "ality": 4113,
      "ats": 4114,
      "Ġoriginal": 4115,
      "aint": 4116,
      "Ġcity": 4117,
      "åĮħè£ħ": 4118,
      "ä»įçĦ¶": 4119,
      "ä¾Ŀæ³ķ": 4120,
      "app": 4121,
      "ĠThey": 4122,
      "è§Ĵèī²": 4123,
      "èįĲ": 4124,
      "è°ĵ": 4125,
      "é©±": 4126,
      "ĠBar": 4127,
      "æľĪä»½": 4128,
      "åŃ¦æľ¯": 4129,
      "ï¼ĮãĢĬ": 4130,
      "æĹĭ": 4131,
      "Ġany": 4132,
      "ided": 4133,
      "Ġcomple": 4134,
      "çªģçł´": 4135,
      "Ġbased": 4136,
      "Ġeff": 4137,
      "çļĦæĹ¶éĹ´": 4138,
      "âĦ": 4139,
      "Ġbegan": 4140,
      "Ġclub": 4141,
      "æĻ¶": 4142,
      "çļĦä¸»è¦ģ": 4143,
      "åł¡": 4144,
      "Ġuse": 4145,
      "å²©": 4146,
      "æ»¤": 4147,
      "çĹĩçĬ¶": 4148,
      "æīİ": 4149,
      "Ġshow": 4150,
      "Ġmet": 4151,
      "aced": 4152,
      "åŃ£åº¦": 4153,
      "æ·»": 4154,
      "å¾Ĳ": 4155,
      "ĠAir": 4156,
      "èī¾": 4157,
      "ĠJapan": 4158,
      "ster": 4159,
      "65": 4160,
      "é£Łçī©": 4161,
      "ĠChrist": 4162,
      "Ġtit": 4163,
      "åľ¨çº¿": 4164,
      "èĢĮæĺ¯": 4165,
      "Ġprom": 4166,
      "Th": 4167,
      "æ¨ª": 4168,
      "çĻĮ": 4169,
      "å¿ĺ": 4170,
      "åĬŀçĲĨ": 4171,
      "çĬ¶åĨµ": 4172,
      "æİ¥è§¦": 4173,
      "æĬ½": 4174,
      "Ġheld": 4175,
      "èħ¾": 4176,
      "Ġmembers": 4177,
      "ç®Ģç§°": 4178,
      "me": 4179,
      "ĠEnglish": 4180,
      "Ġgovernment": 4181,
      "ĠUS": 4182,
      "éĿ¢çļĦ": 4183,
      "ãĢĭãĢĤ": 4184,
      "ĠAnd": 4185,
      "urg": 4186,
      "æĢķ": 4187,
      "Ġ2011": 4188,
      "æĪĲäºĨ": 4189,
      "èĦī": 4190,
      "Ġ2019": 4191,
      "lin": 4192,
      "æ´ŀ": 4193,
      "æľ±": 4194,
      "ĠSw": 4195,
      "æī©å¤§": 4196,
      "ille": 4197,
      "ĠEn": 4198,
      "è®¾ç«ĭ": 4199,
      "éĤ£äºĽ": 4200,
      "Ġnamed": 4201,
      "ĠHar": 4202,
      "ä¸įè¶³": 4203,
      "è¦ĨçĽĸ": 4204,
      "äºĮåįģ": 4205,
      "Ġplace": 4206,
      "æ´ª": 4207,
      "ection": 4208,
      "åĪĨå¸ĥ": 4209,
      "åĩ¯": 4210,
      "çĻ»è®°": 4211,
      "æī¿æĭħ": 4212,
      "ä¸ĭæĿ¥": 4213,
      "ically": 4214,
      "é¸¡": 4215,
      "æ±¡æ°´": 4216,
      "ç¼´": 4217,
      "atic": 4218,
      "åĪĨäº«": 4219,
      "æ·¡": 4220,
      "iness": 4221,
      "itions": 4222,
      "äººçī©": 4223,
      "è¶³çĲĥ": 4224,
      "Ġmember": 4225,
      "è·³": 4226,
      "èĬĤèĥ½": 4227,
      "Ġeng": 4228,
      "åŁºäºİ": 4229,
      "å¤º": 4230,
      "ĠPart": 4231,
      "éĻĲåĪ¶": 4232,
      "è¯ķéªĮ": 4233,
      "aster": 4234,
      "ven": 4235,
      "çº½": 4236,
      "æĭľ": 4237,
      "èĴĤ": 4238,
      "è®¤çľŁ": 4239,
      "sc": 4240,
      "å¿Ĩ": 4241,
      "ivision": 4242,
      "ĠBe": 4243,
      "æĸ¹éĿ¢çļĦ": 4244,
      "ç»ĺ": 4245,
      "Ġ2012": 4246,
      "row": 4247,
      "ĠGeor": 4248,
      "å¤įæĿĤ": 4249,
      "augh": 4250,
      "çģŃ": 4251,
      "Ġocc": 4252,
      "åĩłä¹İ": 4253,
      "çİ©å®¶": 4254,
      "å¦Ĥä»Ĭ": 4255,
      "èĭ±è¯Ń": 4256,
      "åĢ¼å¾Ĺ": 4257,
      "æĦŁæŁĵ": 4258,
      "que": 4259,
      "Ġvill": 4260,
      "å®ĺæĸ¹": 4261,
      "Ġimp": 4262,
      "çº¤": 4263,
      "éĻ¶": 4264,
      "Ġ2008": 4265,
      "Ġland": 4266,
      "åĭ¤": 4267,
      "ĠWest": 4268,
      "88": 4269,
      "äº¿ç¾İåħĥ": 4270,
      "ä¹ĭå¤ĸ": 4271,
      "å£ģ": 4272,
      "ature": 4273,
      "ĠAfter": 4274,
      "å¹²éĥ¨": 4275,
      "ĠDist": 4276,
      "ington": 4277,
      "æĹ¥èµ·": 4278,
      "æ®ĭ": 4279,
      "ä¹Łåı¯ä»¥": 4280,
      "æĻ¯åĮº": 4281,
      "Ġpass": 4282,
      "æľīæľº": 4283,
      "Ġestablished": 4284,
      "ĠEl": 4285,
      "Ġlaw": 4286,
      "çŁ¥åĲį": 4287,
      "ĠMc": 4288,
      "èŀįèµĦ": 4289,
      "ç´«": 4290,
      "Ġ11": 4291,
      "ociation": 4292,
      "çĶµåĬĽ": 4293,
      "ç¥Ŀ": 4294,
      "çĤ¼": 4295,
      "è®¡ç®Ĺæľº": 4296,
      "æľīæīĢ": 4297,
      "çĤī": 4298,
      "é«ĺæł¡": 4299,
      "éĶģ": 4300,
      "adem": 4301,
      "èĪ°": 4302,
      "Ġsim": 4303,
      "å·§": 4304,
      "ales": 4305,
      "æİ¢ç´¢": 4306,
      "right": 4307,
      "è¯Ħä¼°": 4308,
      "èģĶçĽŁ": 4309,
      "ford": 4310,
      "Ġdid": 4311,
      "ç£ģ": 4312,
      "å°½ç®¡": 4313,
      "åĽ½åĬ¡": 4314,
      "âĦĥ": 4315,
      "ĠChampionship": 4316,
      "éģµ": 4317,
      "95": 4318,
      "è´¢åĬ¡": 4319,
      "osition": 4320,
      "Ġ2014": 4321,
      "ety": 4322,
      "æ®ĸ": 4323,
      "Ġalong": 4324,
      "aul": 4325,
      "æĥ³è¦ģ": 4326,
      "acks": 4327,
      "Ġeach": 4328,
      "ublic": 4329,
      "Ġ2016": 4330,
      "èĳ¡": 4331,
      "åħ¬åĳĬ": 4332,
      "ĠGen": 4333,
      "è¿ħéĢŁ": 4334,
      "2007": 4335,
      "æĿľ": 4336,
      "ĠCollege": 4337,
      "æľīçĿĢ": 4338,
      "åĲĮæ¯Ķå¢ŀéķ¿": 4339,
      "åĪĨåŃĲ": 4340,
      "ondon": 4341,
      "ä¸ºä»Ģä¹Ī": 4342,
      "ä¿Ĺ": 4343,
      "éĹ²": 4344,
      "æĹ¨": 4345,
      "çıį": 4346,
      "ç»´ä¿®": 4347,
      "IS": 4348,
      "ĠHis": 4349,
      "ĠRuss": 4350,
      "ç»ĻäºĪ": 4351,
      "åĲ¯åĬ¨": 4352,
      "å¼Ĺ": 4353,
      "æĸĩåŃ¦": 4354,
      "æī¹åĩĨ": 4355,
      "äºĨä¸Ģä¸ª": 4356,
      "çľŁå®ŀ": 4357,
      "è¾Ľ": 4358,
      "æŃ£ç¡®": 4359,
      "ä¸»ç®¡": 4360,
      "èµģ": 4361,
      "èĲ¥åħ»": 4362,
      "ino": 4363,
      "ç§Łèµģ": 4364,
      "èģĮå·¥": 4365,
      "Ġ2018": 4366,
      "åħįè´¹": 4367,
      "Ġ2015": 4368,
      "Ġ2009": 4369,
      "éĶħ": 4370,
      "æ²³åįĹ": 4371,
      "He": 4372,
      "æ¸¸å®¢": 4373,
      "åĮħåĲ«": 4374,
      "oung": 4375,
      "å¯º": 4376,
      "æļĹ": 4377,
      "Ġspecies": 4378,
      "è¿ĲçĶ¨": 4379,
      "æľĢè¿ĳ": 4380,
      "rid": 4381,
      "èĢ¶": 4382,
      "rew": 4383,
      "åĮĸå·¥": 4384,
      "ored": 4385,
      "å®¶éķ¿": 4386,
      "äºķ": 4387,
      "åıĳçĶµ": 4388,
      "ï¼ħ": 4389,
      "Ġsmall": 4390,
      "CA": 4391,
      "Ġband": 4392,
      "å½¢è±¡": 4393,
      "Ġ2013": 4394,
      "åı¬å¼Ģ": 4395,
      "åĲĽ": 4396,
      "èĦ¸": 4397,
      "Ġset": 4398,
      "ç¡ķ": 4399,
      "ĠAb": 4400,
      "çļĦä¼ģä¸ļ": 4401,
      "çĽ¸åºĶ": 4402,
      "åıªèĥ½": 4403,
      "è¿Ļæ¬¡": 4404,
      "Un": 4405,
      "éŁ©åĽ½": 4406,
      "è·Į": 4407,
      "æľīäºº": 4408,
      "èĪį": 4409,
      "łéģĵ": 4410,
      "ç¤ºèĮĥ": 4411,
      "eter": 4412,
      "ĠMed": 4413,
      "èµĽåŃ£": 4414,
      "ä¼ı": 4415,
      "å®ħ": 4416,
      "ck": 4417,
      "aving": 4418,
      "å¾Ĵ": 4419,
      "Ġ190": 4420,
      "ara": 4421,
      "èĢĮè¨Ģ": 4422,
      "å¾®ä¿¡": 4423,
      "Ġlocated": 4424,
      "Ġtook": 4425,
      "èĲ¥ä¸ļ": 4426,
      "rol": 4427,
      "Ġ2007": 4428,
      "åĮ»çĶŁ": 4429,
      "åľ¨ä¸ŃåĽ½": 4430,
      "è£Ĥ": 4431,
      "PP": 4432,
      "æİĮæı¡": 4433,
      "ä¹ı": 4434,
      "æĳĺ": 4435,
      "èµĸ": 4436,
      "æĻĭ": 4437,
      "ĠComp": 4438,
      "æ²ĥ": 4439,
      "ights": 4440,
      "æĪĲéĥ½": 4441,
      "Ġmajor": 4442,
      "æİ¨èįĲ": 4443,
      "åĲįä¸º": 4444,
      "Ġnational": 4445,
      "ĠFrench": 4446,
      "ç»ª": 4447,
      "ä¸ĭåįĪ": 4448,
      "raft": 4449,
      "Ġwe": 4450,
      "æĿĨ": 4451,
      "Ġ2020": 4452,
      "é¢ĨåħĪ": 4453,
      "æľºçļĦ": 4454,
      "å¹¶åľ¨": 4455,
      "ency": 4456,
      "ps": 4457,
      "å¯Ĵ": 4458,
      "é«ĺçº§": 4459,
      "Ġtown": 4460,
      "çĿ¡": 4461,
      "åĽ½åĬ¡éĻ¢": 4462,
      "Ġcr": 4463,
      "illion": 4464,
      "èĩªä¸»": 4465,
      "ä¸Ĭåįĩ": 4466,
      "Ġworld": 4467,
      "å¨±ä¹Ĳ": 4468,
      "èģĶèµĽ": 4469,
      "éŃĶ": 4470,
      "å°ĳå¹´": 4471,
      "å¦»": 4472,
      "med": 4473,
      "æ²»çĲĨ": 4474,
      "ĠAfric": 4475,
      "éĶ¦": 4476,
      "åĲĦé¡¹": 4477,
      "çŃīçŃī": 4478,
      "æ¶µ": 4479,
      "ches": 4480,
      "äº«åıĹ": 4481,
      "85": 4482,
      "éĺŁä¼į": 4483,
      "èĩªæ²»": 4484,
      "å·¡": 4485,
      "usiness": 4486,
      "çĮª": 4487,
      "Ġsl": 4488,
      "ä¸Ģä½į": 4489,
      "äººæ°ĳåħ±åĴĮåĽ½": 4490,
      "éħįåĲĪ": 4491,
      "çģ°": 4492,
      "Ġperson": 4493,
      "Ġ2017": 4494,
      "çİĽ": 4495,
      "ula": 4496,
      "Ġborn": 4497,
      "æĭįæĳĦ": 4498,
      "Ġpublished": 4499,
      "ling": 4500,
      "tt": 4501,
      "2006": 4502,
      "Ġprofess": 4503,
      "è¡¨è¾¾": 4504,
      "åį°åº¦": 4505,
      "å¿ħè¦ģ": 4506,
      "arge": 4507,
      "ĠTe": 4508,
      "æĺ¯çĶ±": 4509,
      "ä¸ĩäºº": 4510,
      "èį¯çī©": 4511,
      "Ar": 4512,
      "ä¸»åĬ¨": 4513,
      "çļĦåŁºç¡Ģ": 4514,
      "ä¿Ħç½Ĺæĸ¯": 4515,
      "46": 4516,
      "èĲĦ": 4517,
      "æĻĵ": 4518,
      "è¿«": 4519,
      "Ġdeb": 4520,
      "æĬ¢": 4521,
      "Ġgeneral": 4522,
      "co": 4523,
      "å¤§éĥ¨åĪĨ": 4524,
      "ä¼łæĴŃ": 4525,
      "æĽ´å¤ļçļĦ": 4526,
      "å¼ºåº¦": 4527,
      "ĠĠĠĠ": 4528,
      "æ²ŁéĢļ": 4529,
      "Ġreport": 4530,
      "éŀ": 4531,
      "Ġ0": 4532,
      "æ±¤": 4533,
      "ä»ĵ": 4534,
      "ä¸Ģä½ĵ": 4535,
      "ourt": 4536,
      "æĽ¾ç»ı": 4537,
      "æŁ±": 4538,
      "åĶ¯ä¸Ģ": 4539,
      "åı¯èĥ½ä¼ļ": 4540,
      "Ġleg": 4541,
      "è¿ĳå¹´æĿ¥": 4542,
      "Ġserved": 4543,
      "Ġ13": 4544,
      "ract": 4545,
      "èĸĦ": 4546,
      "èĳ¡èĲĦ": 4547,
      "side": 4548,
      "èķ": 4549,
      "Ġcentury": 4550,
      "æĸĳ": 4551,
      "çº¹": 4552,
      "Ġ2006": 4553,
      "ç´¯è®¡": 4554,
      "ĠSy": 4555,
      "ĠHer": 4556,
      "è¾ī": 4557,
      "ãĤ": 4558,
      "ä¸»æĮģ": 4559,
      "ides": 4560,
      "éĺħè¯»": 4561,
      "çĪ¶æ¯į": 4562,
      "ilitary": 4563,
      "åŃ¦ä¼ļ": 4564,
      "Ġcompany": 4565,
      "æµ®": 4566,
      "å¹¸ç¦ı": 4567,
      "æĹ¦": 4568,
      "å¥ı": 4569,
      "lymp": 4570,
      "è£ħç½®": 4571,
      "å®ı": 4572,
      "çĽ¸åĲĮ": 4573,
      "ä½¿å¾Ĺ": 4574,
      "umb": 4575,
      "å¾½": 4576,
      "éĢĤåºĶ": 4577,
      "æĢ§åĴĮ": 4578,
      "Ġhome": 4579,
      "ĠLondon": 4580,
      "é¢Ħéĺ²": 4581,
      "ä¸Ĭè¿°": 4582,
      "ucation": 4583,
      "ĠRec": 4584,
      "åģļåĪ°": 4585,
      "Ã³": 4586,
      "èĥĮæĻ¯": 4587,
      "çĶµåĬ¨": 4588,
      "æł·çļĦ": 4589,
      "èĤ¡ä¸ľ": 4590,
      "Ġcould": 4591,
      "ified": 4592,
      "åħļåĳĺ": 4593,
      "å¼ºè°ĥ": 4594,
      "çĶµèĦĳ": 4595,
      "éĻ·": 4596,
      "å½ĵåīį": 4597,
      "Ġdiffer": 4598,
      "å¥ī": 4599,
      "ä¸Ńåįİäººæ°ĳåħ±åĴĮåĽ½": 4600,
      "ç«¹": 4601,
      "æī¾åĪ°": 4602,
      "åĪĢ": 4603,
      "åŃ¦ä½į": 4604,
      "Ġjoin": 4605,
      "è¯ģä¹¦": 4606,
      "ords": 4607,
      "Ġmanag": 4608,
      "Ġsingle": 4609,
      "å®ļçļĦ": 4610,
      "æ³ķè§Ħ": 4611,
      "æĶ¹éĢł": 4612,
      "Ġreceived": 4613,
      "åĵªäºĽ": 4614,
      "ĠRo": 4615,
      "Ġlocal": 4616,
      "åħĪåĲİ": 4617,
      "Ġevent": 4618,
      "éĶĭ": 4619,
      "ĠRe": 4620,
      "47": 4621,
      "åĳĪçİ°": 4622,
      "Ġpo": 4623,
      "aus": 4624,
      "é¼ĵåĬ±": 4625,
      "omin": 4626,
      "Ġsuccess": 4627,
      "ipp": 4628,
      "çĽ´æĴŃ": 4629,
      "ĠDe": 4630,
      "éĿ¢ä¸´": 4631,
      "ä¹łæĥ¯": 4632,
      "åħĥç´ł": 4633,
      "estern": 4634,
      "çİ°å®ŀ": 4635,
      "å¸ĤåľºçļĦ": 4636,
      "åİĤå®¶": 4637,
      "ĠWilliam": 4638,
      "æĽ´æĺ¯": 4639,
      "Ġ30": 4640,
      "Ġgames": 4641,
      "åĸĿ": 4642,
      "Ġstation": 4643,
      "æµģç¨ĭ": 4644,
      "ocial": 4645,
      "ä¹³": 4646,
      "æ¼Ķåĳĺ": 4647,
      "Ġtelevision": 4648,
      "ä¸ĢåĪĩ": 4649,
      "çĭ¬çī¹": 4650,
      "èļĢ": 4651,
      "åģ¶": 4652,
      "æģĲ": 4653,
      "é©¾é©¶": 4654,
      "åľ°ä½į": 4655,
      "å£®": 4656,
      "ĠCup": 4657,
      "int": 4658,
      "Ġrefer": 4659,
      "%ï¼Ľ": 4660,
      "ä»£çĲĨ": 4661,
      "åŀĥ": 4662,
      "è½¬åŀĭ": 4663,
      "Ġcond": 4664,
      "ĠçļĦ": 4665,
      "èĩ³ä»Ĭ": 4666,
      "ief": 4667,
      "åľ¾": 4668,
      "An": 4669,
      "Living": 4670,
      "Ġalign": 4671,
      "æľ¬èº«": 4672,
      "åŀĥåľ¾": 4673,
      "éĽķ": 4674,
      "æłı": 4675,
      "åįĹäº¬": 4676,
      "è¿½æ±Ĥ": 4677,
      "iod": 4678,
      "å¸¸è§ģ": 4679,
      "æĺ¯æĮĩ": 4680,
      "æĦĪ": 4681,
      "Ġaround": 4682,
      "Ġbuilt": 4683,
      "ç¨¿": 4684,
      "å¯¸": 4685,
      "Ġterm": 4686,
      "åľ°åĿĢ": 4687,
      "ä¸ĵåĪ©": 4688,
      "BA": 4689,
      "Ġcar": 4690,
      "ĠSec": 4691,
      "ä»¤äºº": 4692,
      "è¿Ľåı£": 4693,
      "éĵº": 4694,
      "ffic": 4695,
      "Ġla": 4696,
      "Ġdue": 4697,
      "æī£": 4698,
      "uthor": 4699,
      "åħ¬ä¼Ĺ": 4700,
      "åīįå¾Ģ": 4701,
      "åĬŀåħ¬å®¤": 4702,
      "ä¸´åºĬ": 4703,
      "ä¸Ģå®¶": 4704,
      "åĪ©çĽĬ": 4705,
      "ä¸īå¹´": 4706,
      "æĴĳ": 4707,
      "ze": 4708,
      "çļĨ": 4709,
      "äººæ°ĳæĶ¿åºľ": 4710,
      "åįģäºĮ": 4711,
      "å¡ĳæĸĻ": 4712,
      "66": 4713,
      "å§ĭç»Ī": 4714,
      "Ġvers": 4715,
      "å¥¹çļĦ": 4716,
      "å°Ĩä¼ļ": 4717,
      "ization": 4718,
      "ink": 4719,
      "æ§": 4720,
      "å¤©æ´¥": 4721,
      "å½¹": 4722,
      "äºĭå®ŀ": 4723,
      "åķĨæłĩ": 4724,
      "ison": 4725,
      "éĩĮçļĦ": 4726,
      "umn": 4727,
      "ĠRes": 4728,
      "å¾ªçİ¯": 4729,
      "ler": 4730,
      "æīĢåľ¨": 4731,
      "æĭĴ": 4732,
      "çľŁçļĦ": 4733,
      "äºĭæķħ": 4734,
      "è·ĥ": 4735,
      "å¾Ģå¾Ģ": 4736,
      "2005": 4737,
      "è®¨è®º": 4738,
      "ouncil": 4739,
      "å¼ºçļĦ": 4740,
      "åį¢": 4741,
      "ä¼¸": 4742,
      "åħħæ»¡": 4743,
      "ä¸Ģå®ļçļĦ": 4744,
      "çĪ¶äº²": 4745,
      "ä¾Ŀæį®": 4746,
      "çļĦåľ°æĸ¹": 4747,
      "æºª": 4748,
      "åįıè°ĥ": 4749,
      "æ³µ": 4750,
      "ately": 4751,
      "æľīäºĨ": 4752,
      "Ġhel": 4753,
      "Ġdown": 4754,
      "ãĢĤï¼Ī": 4755,
      "ĠCor": 4756,
      "éĩĩè´Ń": 4757,
      "NA": 4758,
      "å¤©çĦ¶": 4759,
      "...": 4760,
      "anguage": 4761,
      "ording": 4762,
      "hem": 4763,
      "âĢĿâĢľ": 4764,
      "çĽĪ": 4765,
      "åį³ä½¿": 4766,
      "æĽ´å¥½": 4767,
      "åħļå§Ķ": 4768,
      "reet": 4769,
      "è¿Ļä¹Ī": 4770,
      "çĻ¾åĪĨ": 4771,
      "æ¦Ĥå¿µ": 4772,
      "å¿ł": 4773,
      "ĠArt": 4774,
      "unct": 4775,
      "Ġep": 4776,
      "å¼ķå¯¼": 4777,
      "çī¹åĪ«æĺ¯": 4778,
      "æľŁçļĦ": 4779,
      "æĭ¼": 4780,
      "é¢ģ": 4781,
      "å®Įæķ´": 4782,
      "ĠDistrict": 4783,
      "98": 4784,
      "é»İ": 4785,
      "Ã¼": 4786,
      "aim": 4787,
      "çĲĥåĳĺ": 4788,
      "å¹³æĸ¹åħ¬éĩĮ": 4789,
      "å®ŀåĬĽ": 4790,
      "çķħ": 4791,
      "èĻİ": 4792,
      "acter": 4793,
      "Ġdescribed": 4794,
      "alk": 4795,
      "åĩºçĶŁ": 4796,
      "å¦Ĥä¸ĭ": 4797,
      "å±ķå¼Ģ": 4798,
      "èĻ«": 4799,
      "ä½ľèĢħ": 4800,
      "æĪĺäºī": 4801,
      "å¯¹è±¡": 4802,
      "å®ŀéªĮå®¤": 4803,
      "åĢ¾": 4804,
      "æĮĩæłĩ": 4805,
      "ummer": 4806,
      "èĢĥçĶŁ": 4807,
      "ĠDav": 4808,
      "å°Ŀ": 4809,
      "44": 4810,
      "è¿ĽæŃ¥": 4811,
      "å±¥": 4812,
      "alth": 4813,
      "uf": 4814,
      "åħ±æľī": 4815,
      "Ġlast": 4816,
      "ĠHigh": 4817,
      "èĴ¸": 4818,
      "åĮºçļĦ": 4819,
      "ç¢į": 4820,
      "é«ĺæķĪ": 4821,
      "çĥ¯": 4822,
      "ene": 4823,
      "åħ±äº«": 4824,
      "ÃŃ": 4825,
      "ected": 4826,
      "Ġrest": 4827,
      "åľ¨æŃ¤": 4828,
      "1000": 4829,
      "çļĦæĬĢæľ¯": 4830,
      "ç²®": 4831,
      "æĸ°åŀĭ": 4832,
      "ç²ĺ": 4833,
      "Ġleft": 4834,
      "ĠInternational": 4835,
      "åıĺå¾Ĺ": 4836,
      "ration": 4837,
      "ä½ĵçİ°": 4838,
      "è®©äºº": 4839,
      "åĬłä¸Ĭ": 4840,
      "ä¸»å¸Ń": 4841,
      "å¤ļå¹´": 4842,
      "ç´łè´¨": 4843,
      "Ġhistory": 4844,
      "äºİæĺ¯": 4845,
      "èĬ¯": 4846,
      "è§Ĥå¯Ł": 4847,
      "çļĦæľįåĬ¡": 4848,
      "Ġtyp": 4849,
      "Ġprot": 4850,
      "åĮ»èį¯": 4851,
      "ĠHowever": 4852,
      "ä»Ļ": 4853,
      "æł¡åĽŃ": 4854,
      "æľ¬ç§ĳ": 4855,
      "akes": 4856,
      "ĠSe": 4857,
      "idd": 4858,
      "å»ī": 4859,
      "Ġdet": 4860,
      "éĺ²æŃ¢": 4861,
      "éĢļä¿¡": 4862,
      "æĭĽçĶŁ": 4863,
      "ä¸Ģå®ļè¦ģ": 4864,
      "é«ĺçŃī": 4865,
      "æįŁå¤±": 4866,
      "Ġline": 4867,
      "æ¹ĸåįĹ": 4868,
      "ä½©": 4869,
      "åĲĪæł¼": 4870,
      "èĤ¡ç¥¨": 4871,
      "æĪ¿åľ°äº§": 4872,
      "ones": 4873,
      "Ġrepresent": 4874,
      "Ġsaid": 4875,
      "æģĭ": 4876,
      "ĠDr": 4877,
      "è°ĭ": 4878,
      "çº¿ä¸Ĭ": 4879,
      "ĠAng": 4880,
      "ble": 4881,
      "iven": 4882,
      "Ġorder": 4883,
      "éĻĦè¿ĳ": 4884,
      "çİ¯èĬĤ": 4885,
      "æŁĶ": 4886,
      "æ¡ĥ": 4887,
      "ĠLa": 4888,
      "Ġsix": 4889,
      "urs": 4890,
      "era": 4891,
      "èĩ´åĬĽ": 4892,
      "è¿ĳæĹ¥": 4893,
      "ä½łä»¬": 4894,
      "Ġadv": 4895,
      "ĠPark": 4896,
      "å¸ĥå±Ģ": 4897,
      "æŃ¦æ±ī": 4898,
      "BC": 4899,
      "å½±çīĩ": 4900,
      "Ġnow": 4901,
      "äººæķ°": 4902,
      "ĠNo": 4903,
      "è°±": 4904,
      "æıĲä¾ĽäºĨ": 4905,
      "Ġred": 4906,
      "Ġshort": 4907,
      "åħ´è¶£": 4908,
      "artment": 4909,
      "ring": 4910,
      "Ġtri": 4911,
      "åıĤèĢĥ": 4912,
      "arried": 4913,
      "ideo": 4914,
      "Ġdied": 4915,
      "å°±åı¯ä»¥": 4916,
      "ĠHouse": 4917,
      "é¡ºåĪ©": 4918,
      "é¸Ł": 4919,
      "èī¯å¥½": 4920,
      "è£ħå¤ĩ": 4921,
      "æĿŃ": 4922,
      ")ãĢĤ": 4923,
      "äººæ°ĳå¸ģ": 4924,
      "å¤§å¤ļæķ°": 4925,
      "Ġcamp": 4926,
      "ç§¦": 4927,
      "çĲĨæĥ³": 4928,
      "ä¸ŃåŃ¦": 4929,
      "çĤŃ": 4930,
      "äºļæ´²": 4931,
      "ĠSup": 4932,
      "ç¦»å¼Ģ": 4933,
      "çļĦä¸Ģç§į": 4934,
      "åĨ³èµĽ": 4935,
      "è§£åĨ³æĸ¹æ¡Ī": 4936,
      "ä¸ĢçĤ¹": 4937,
      "ç½ĳä¸Ĭ": 4938,
      "uck": 4939,
      "ä»ĸåľ¨": 4940,
      "å§Ĳ": 4941,
      "color": 4942,
      "Ġinclude": 4943,
      "èµ«": 4944,
      "èĥĥ": 4945,
      "People": 4946,
      "ĠSch": 4947,
      "åįļçī©": 4948,
      "çļĦçĶŁæ´»": 4949,
      "Ġappro": 4950,
      "Ġwithin": 4951,
      "ument": 4952,
      "leg": 4953,
      "å¤ļå°ĳ": 4954,
      "ä¼Ĺå¤ļ": 4955,
      "è£ħé¥°": 4956,
      "äººåľ¨": 4957,
      "åŃķ": 4958,
      "line": 4959,
      "osp": 4960,
      "190": 4961,
      "è¯¦ç»Ĩ": 4962,
      "åĮĹéĥ¨": 4963,
      "å®ŀè¡Į": 4964,
      "ï¼Īï¼īï¼Į": 4965,
      "æµ·å¤ĸ": 4966,
      "urther": 4967,
      "çĵ·": 4968,
      "çī¹å¾ģ": 4969,
      "ĠPhil": 4970,
      "ä½ľä¸ļ": 4971,
      "Ġpresent": 4972,
      "åĩłä¸ª": 4973,
      "åīĳ": 4974,
      "çļĦåĲĮæĹ¶": 4975,
      "IP": 4976,
      "ether": 4977,
      "çĽĳæµĭ": 4978,
      "Ġ,": 4979,
      "çī©çĲĨ": 4980,
      "ä¿Ŀæ¸©": 4981,
      "Ġday": 4982,
      "èĽĭçĻ½": 4983,
      "èĩªæĪĳ": 4984,
      "ç»ĦåĲĪ": 4985,
      "eek": 4986,
      "49": 4987,
      "ä»¿": 4988,
      "æķ¢": 4989,
      "è§£éĩĬ": 4990,
      "åľ¨è¿Ļ": 4991,
      "Ġplayer": 4992,
      "Ġmen": 4993,
      "reg": 4994,
      "éĿ©åĳ½": 4995,
      "Ġfive": 4996,
      "day": 4997,
      "åıįæĺł": 4998,
      "å¤ļæ¬¡": 4999,
      "æ¼ı": 5000,
      "éĢĥ": 5001,
      "ald": 5002,
      "ç±»ä¼¼": 5003,
      "å°ıç»Ħ": 5004,
      "____": 5005,
      "æĭĽèģĺ": 5006,
      "åħģ": 5007,
      "ä¸ĢåĲį": 5008,
      "æľ¬æĸĩ": 5009,
      "æľĢæĸ°": 5010,
      "ards": 5011,
      "ius": 5012,
      "Ġ[": 5013,
      "Ġstyle": 5014,
      "Ġbecause": 5015,
      "çĵ¶": 5016,
      "76": 5017,
      "å¹´é¾Ħ": 5018,
      "éĶĪ": 5019,
      "è§Ĵåº¦": 5020,
      "å°¤åħ¶æĺ¯": 5021,
      "AR": 5022,
      "è®¸åı¯": 5023,
      "åŃĲçļĦ": 5024,
      "æĻ¨": 5025,
      "Ġrequ": 5026,
      "uman": 5027,
      "çºªå¿µ": 5028,
      "è¹": 5029,
      "Ġold": 5030,
      "ä¹Ķ": 5031,
      "åĲįç§°": 5032,
      "å±ķè§Ī": 5033,
      "å¼ºåĮĸ": 5034,
      "Ġlarge": 5035,
      "ä¸įåĨį": 5036,
      "æıĴ": 5037,
      "Ġref": 5038,
      "ED": 5039,
      "Ġ25": 5040,
      "æĽ´æĸ°": 5041,
      "èŀº": 5042,
      "ki": 5043,
      "åĲĦä¸ª": 5044,
      "çľģçº§": 5045,
      "æĶ¶éĽĨ": 5046,
      "æĤ¨çļĦ": 5047,
      "86": 5048,
      "omb": 5049,
      "çĲ´": 5050,
      "ody": 5051,
      "åı¯éĿł": 5052,
      "éĢĲæŃ¥": 5053,
      "ka": 5054,
      "though": 5055,
      "åħĦ": 5056,
      "ä¸ĬåįĪ": 5057,
      "æĦıåĳ³": 5058,
      ".,": 5059,
      "åİ¦": 5060,
      "Ġtop": 5061,
      "Ġconsid": 5062,
      "æ¬²": 5063,
      "Ġthird": 5064,
      "å½¼": 5065,
      "å¯Ĩåº¦": 5066,
      "ively": 5067,
      "æĳĨ": 5068,
      "Ġpower": 5069,
      "adio": 5070,
      "è¡Įä¸ļçļĦ": 5071,
      "æĮĩæķ°": 5072,
      "ä»¥åīį": 5073,
      "åĩĨç¡®": 5074,
      "æłĩå¿Ĺ": 5075,
      "Ġfr": 5076,
      "Ġbuilding": 5077,
      "åľ¨äºİ": 5078,
      "oyal": 5079,
      "Ġincluded": 5080,
      "çªģåĩº": 5081,
      "æ»¨": 5082,
      "ä¸ĩåĲ¨": 5083,
      "Ġdem": 5084,
      "roup": 5085,
      "åĪĨç±»": 5086,
      "æĶ¶çĽĬ": 5087,
      "å£¤": 5088,
      "å»ºæĪĲ": 5089,
      "ä¸°å¯ĮçļĦ": 5090,
      "ä¼ļä¸Ĭ": 5091,
      "åĬłå¤§": 5092,
      "çīĪæľ¬": 5093,
      "2004": 5094,
      "æ¸łéģĵ": 5095,
      "æĹ¶çļĦ": 5096,
      "ext": 5097,
      "ĠGl": 5098,
      "èĤ¯å®ļ": 5099,
      "Ġpost": 5100,
      "æĦŁåĪ°": 5101,
      "lex": 5102,
      "åĽ´ç»ķ": 5103,
      "èī²çļĦ": 5104,
      "iforn": 5105,
      "Ġresult": 5106,
      "tal": 5107,
      "useum": 5108,
      "ript": 5109,
      "ote": 5110,
      "éĤ»": 5111,
      "åĪĽå»º": 5112,
      "iter": 5113,
      "å·¥åİĤ": 5114,
      "Ġarch": 5115,
      "åľ°çĲĨ": 5116,
      "éĻķ": 5117,
      "æĹ¥èĩ³": 5118,
      "èĤ¿": 5119,
      "è¿Ī": 5120,
      "ä¼Ļä¼´": 5121,
      "éļıåĲİ": 5122,
      "è²": 5123,
      "èĦı": 5124,
      "éļ¾ä»¥": 5125,
      "æ»´": 5126,
      "æĹħè¡Į": 5127,
      "æĪĲçĨŁ": 5128,
      "of": 5129,
      "æł¹æľ¬": 5130,
      "ste": 5131,
      "éĺ²æİ§": 5132,
      "æ°¨": 5133,
      "æ¶Īéĺ²": 5134,
      "å½ĵä¸Ń": 5135,
      "riend": 5136,
      "çŁ³æ²¹": 5137,
      "å°ĸ": 5138,
      "ĠIndian": 5139,
      "78": 5140,
      "çĬ¯ç½ª": 5141,
      "èµĽäºĭ": 5142,
      "ico": 5143,
      "è®¾æľī": 5144,
      "Ġvillage": 5145,
      "Ġstand": 5146,
      "èĿ": 5147,
      "éĥ½åľ¨": 5148,
      "Ġmark": 5149,
      "Ġåľ¨": 5150,
      "å®¤åĨħ": 5151,
      "Ġcor": 5152,
      "oon": 5153,
      "åħ¨ä½ĵ": 5154,
      "ç¬¬äºĶ": 5155,
      "ä¸Ĭæ¶¨": 5156,
      "æŃ»äº¡": 5157,
      "vious": 5158,
      "na": 5159,
      "æīĭæ®µ": 5160,
      "åįĹéĥ¨": 5161,
      "è¡Ĺéģĵ": 5162,
      "ç¾İä¸½": 5163,
      "åįĵ": 5164,
      "å¤§å¹ħ": 5165,
      "Ġnorth": 5166,
      "å°¿": 5167,
      "å¿Ļ": 5168,
      "ander": 5169,
      "Ġfac": 5170,
      "Ġcurr": 5171,
      "Ġav": 5172,
      "lands": 5173,
      "Ġpopulation": 5174,
      "è§ĦåĪĻ": 5175,
      "ä¼ļåĳĺ": 5176,
      "ifornia": 5177,
      "æŀĦæĪĲ": 5178,
      "ç»ıåħ¸": 5179,
      "æī«": 5180,
      "æī°": 5181,
      "42": 5182,
      "æİĴæĶ¾": 5183,
      "å¸Ĥéķĩ": 5184,
      "Ġannounc": 5185,
      "ĠEngland": 5186,
      "96": 5187,
      "æĶ¯æĴĳ": 5188,
      "æĭĨ": 5189,
      "Ġ2005": 5190,
      "éħįå¥Ĺ": 5191,
      "æĹģ": 5192,
      "æµ¦": 5193,
      "Ġbook": 5194,
      "è¡¨æ¼Ķ": 5195,
      "ĠAct": 5196,
      "Ġson": 5197,
      "çĶŁéķ¿": 5198,
      "lection": 5199,
      "gr": 5200,
      "ä¿¡çĶ¨": 5201,
      "æ¬£": 5202,
      "åį±éĻ©": 5203,
      "èĩ³å°ĳ": 5204,
      "å§Ķä¼ļ": 5205,
      "åľºæīĢ": 5206,
      "æĸĩåŃĹ": 5207,
      "å°¼äºļ": 5208,
      "æķĮ": 5209,
      "äº©": 5210,
      "ä¸»ä½ĵ": 5211,
      "çĶľ": 5212,
      "Ġdeaths": 5213,
      "æ¡Īä»¶": 5214,
      "ĠRiver": 5215,
      "ĠAc": 5216,
      "æķ¦": 5217,
      "éĤĢè¯·": 5218,
      "ociety": 5219,
      "ä¾ĿçĦ¶": 5220,
      "Ġcrit": 5221,
      "æĦŁåıĹ": 5222,
      "ooks": 5223,
      "Ġperiod": 5224,
      "æľŁå¾ħ": 5225,
      "ç¬¬ä¸Ģæ¬¡": 5226,
      "ady": 5227,
      "ç§Ĵ": 5228,
      "58": 5229,
      "77": 5230,
      "ground": 5231,
      "æ²Ī": 5232,
      "Ġwar": 5233,
      "ç¾Ĭ": 5234,
      "åħ¹": 5235,
      "ä½ıæĪ¿": 5236,
      "inning": 5237,
      "å¤©æ°Ķ": 5238,
      "ailway": 5239,
      "æµģéĩı": 5240,
      "ç³»ç»ŁçļĦ": 5241,
      "Ġ$": 5242,
      "åĽºå®ļ": 5243,
      "ä¹Łåľ¨": 5244,
      "Ġdifferent": 5245,
      "æ°Ľ": 5246,
      "åĵ²": 5247,
      "Ġlarg": 5248,
      "é¥®é£Ł": 5249,
      "omp": 5250,
      "å¿ĥçļĦ": 5251,
      "èĥİ": 5252,
      "2001": 5253,
      "èµ¶": 5254,
      "æĩĤ": 5255,
      "Ġstat": 5256,
      "å¾Īå¤§": 5257,
      "alf": 5258,
      "ĠSan": 5259,
      "èĤĮ": 5260,
      "åįļçī©é¦Ĩ": 5261,
      "ĊĊĠ": 5262,
      "ä¹ĥ": 5263,
      "æ²³åĮĹ": 5264,
      "å¤§åĪ©": 5265,
      "å¸ķ": 5266,
      "Ġiss": 5267,
      "ç¥ŀç»ı": 5268,
      "400": 5269,
      "ours": 5270,
      "åĪ¶åĵģ": 5271,
      "ĠAg": 5272,
      "å¹»": 5273,
      "éħįç½®": 5274,
      "Ġchildren": 5275,
      "ĠAustralia": 5276,
      "è¾½": 5277,
      "uel": 5278,
      "Ġvis": 5279,
      "ĠMon": 5280,
      "uit": 5281,
      "æ¯įäº²": 5282,
      "æĢª": 5283,
      "ĠAward": 5284,
      "ched": 5285,
      "hys": 5286,
      "ament": 5287,
      "ç¢İ": 5288,
      "Ġperform": 5289,
      "æĸ°æĬĢæľ¯": 5290,
      "Ġec": 5291,
      "è²Į": 5292,
      "ä¸¤ç§į": 5293,
      "çŃīæĸ¹éĿ¢": 5294,
      "ä¸ļç»©": 5295,
      "ĠMich": 5296,
      "äººçĶŁ": 5297,
      "56": 5298,
      "Ġif": 5299,
      "éĻ¢æł¡": 5300,
      "éģĩåĪ°": 5301,
      "çĸĨ": 5302,
      "æĺĨ": 5303,
      "ĠDep": 5304,
      "Ġlike": 5305,
      "Ġjust": 5306,
      "ç¾İæľ¯": 5307,
      "åĽ½æ°ĳ": 5308,
      "çļĦå¿ĥ": 5309,
      "ä¸ĵéĹ¨": 5310,
      "çĤ¸": 5311,
      "æ··åĲĪ": 5312,
      "æŀĦå»º": 5313,
      "éĢıè¿ĩ": 5314,
      "çłĶç©¶çĶŁ": 5315,
      "Ġsouth": 5316,
      "èĩªè¡Į": 5317,
      "eak": 5318,
      "Ġequ": 5319,
      "ribut": 5320,
      "åĬ¨çĶ»": 5321,
      "éªĳ": 5322,
      "åįıåĬ©": 5323,
      "åıĳåĬ¨": 5324,
      "çļĦåīį": 5325,
      "Ġincre": 5326,
      "Ġkill": 5327,
      "æĮĸ": 5328,
      "vers": 5329,
      "æĸ¯çī¹": 5330,
      "ç¾İçļĦ": 5331,
      "Pl": 5332,
      "ĠParty": 5333,
      "otes": 5334,
      "åľ°çĲĥ": 5335,
      "ĠCalifornia": 5336,
      "ering": 5337,
      "ael": 5338,
      "å¿«ä¹Ĳ": 5339,
      "History": 5340,
      "èĤ¡ä»½æľīéĻĲåħ¬åı¸": 5341,
      "èĩ´åĬĽäºİ": 5342,
      "Ġhouse": 5343,
      "å°Ĩäºİ": 5344,
      "apt": 5345,
      "ared": 5346,
      "æĺ¯ä»Ģä¹Ī": 5347,
      "è¿Ŀæ³ķ": 5348,
      "ops": 5349,
      "åľ°çļĦ": 5350,
      "ush": 5351,
      "åĨĴ": 5352,
      "äº§æĿĥ": 5353,
      "Ġ2000": 5354,
      "ä¸ĢæĿ¡": 5355,
      "Ġopp": 5356,
      "å¿ĹæĦ¿": 5357,
      "çĮ«": 5358,
      "æķ´åĲĪ": 5359,
      "æĸ°å¢ŀ": 5360,
      "çĽ¸äºĴ": 5361,
      "Ġaddition": 5362,
      "åº¦çļĦ": 5363,
      "Ġproject": 5364,
      "iber": 5365,
      "43": 5366,
      "Ġrepl": 5367,
      "åĮ¹": 5368,
      "åŃ¦åİĨ": 5369,
      "åľºæĻ¯": 5370,
      "çī§": 5371,
      "å®ļä½į": 5372,
      "ç¼Ŀ": 5373,
      "ĠOlymp": 5374,
      "æŀª": 5375,
      "åĲĮæľŁ": 5376,
      "2003": 5377,
      "Ġmat": 5378,
      "æ¹ĸåĮĹ": 5379,
      "avy": 5380,
      "ï¼į": 5381,
      "Ġwater": 5382,
      "ested": 5383,
      "æµĭéĩı": 5384,
      "å¦¹": 5385,
      "ä¼ļæľī": 5386,
      "Ġarr": 5387,
      "æĿ¥åĪ°": 5388,
      "ama": 5389,
      "ä¿¡åı·": 5390,
      "çļĦçĥŃ": 5391,
      "ecut": 5392,
      "æµģè¡Į": 5393,
      "ournal": 5394,
      "Ġdel": 5395,
      "åģļåĩº": 5396,
      "çĦĬ": 5397,
      "åĽ¾ä¹¦": 5398,
      "ä¸ĵä¸ļçļĦ": 5399,
      "å¯¼æ¼Ķ": 5400,
      "ries": 5401,
      "å¹¿åľº": 5402,
      "ari": 5403,
      "Ġservice": 5404,
      "é½¿": 5405,
      "çĵľ": 5406,
      "å¯¹å¤ĸ": 5407,
      "äºĭåĬ¡": 5408,
      "äºĭé¡¹": 5409,
      "æĸ°åĨł": 5410,
      "ç¡®è®¤": 5411,
      "ĠPer": 5412,
      "alt": 5413,
      "éĽ¶åĶ®": 5414,
      "æ¸ħæ´ģ": 5415,
      "97": 5416,
      "çĪ¸": 5417,
      "ç¡ķå£«": 5418,
      "åĨľæ°ĳ": 5419,
      "Ġmale": 5420,
      "çļĦæĥħåĨµä¸ĭ": 5421,
      "æĹ¥åīį": 5422,
      "å¹´åīį": 5423,
      "ĠThere": 5424,
      "æĬ±": 5425,
      "ä½İäºİ": 5426,
      "Ġexper": 5427,
      "è®ºæĸĩ": 5428,
      "åĪ©äºİ": 5429,
      "å¤§éĻĨ": 5430,
      "åį³åı¯": 5431,
      "çļĦå¥½": 5432,
      "åĩ¤": 5433,
      "Ġfield": 5434,
      "æĬĳ": 5435,
      "Ġ2021": 5436,
      "Ġnon": 5437,
      "ases": 5438,
      "Ġ2004": 5439,
      "gcolor": 5440,
      "Ġdistrict": 5441,
      "åħ¬å®ī": 5442,
      "Ġstill": 5443,
      "è®¤åı¯": 5444,
      "æįĲ": 5445,
      "åĻ¨çļĦ": 5446,
      "Ġmoved": 5447,
      "SA": 5448,
      "æĦıåĳ³çĿĢ": 5449,
      "Ġanother": 5450,
      "é³": 5451,
      "æĢ»ç»ıçĲĨ": 5452,
      "ests": 5453,
      "epend": 5454,
      "é«ĺç«¯": 5455,
      "çº¤ç»´": 5456,
      "è¿ĺè¦ģ": 5457,
      "Ġconstr": 5458,
      "ĠIndia": 5459,
      "Ġled": 5460,
      "Ġcountry": 5461,
      "çļĦè¦ģæ±Ĥ": 5462,
      "xt": 5463,
      "çļĦä¸į": 5464,
      "adu": 5465,
      "æ¯ķä¸ļçĶŁ": 5466,
      "ç®¡éģĵ": 5467,
      "Ġhistor": 5468,
      "èµĦè®¯": 5469,
      "ugg": 5470,
      "æĢ»ä½ĵ": 5471,
      "éĥŃ": 5472,
      "Ġfather": 5473,
      "çİ°æľī": 5474,
      "Ġactiv": 5475,
      "ä¸ĭéĿ¢": 5476,
      "å¸Ĥæ°ĳ": 5477,
      "èħ¹": 5478,
      "Ġconc": 5479,
      "æ¢¯": 5480,
      "è¢ĭ": 5481,
      "ape": 5482,
      "Ġhand": 5483,
      "Ġinternational": 5484,
      "Ġel": 5485,
      "æĸ°èĥ½æºĲ": 5486,
      "æĥħç»ª": 5487,
      "åĵģç§į": 5488,
      "èĳĹåĲį": 5489,
      "é¢ĨåŁŁçļĦ": 5490,
      "æĤ²": 5491,
      "å·¥ä½ľäººåĳĺ": 5492,
      "å¤§èµĽ": 5493,
      "äººä½ĵ": 5494,
      "æİĺ": 5495,
      "è¡¨æĺİ": 5496,
      "ivil": 5497,
      "å±ķçİ°": 5498,
      "ãĢĭãĢĬ": 5499,
      "çĩ¥": 5500,
      "IN": 5501,
      "Ġauthor": 5502,
      "dom": 5503,
      "ense": 5504,
      "éľį": 5505,
      "ä¸»è¦ģæĺ¯": 5506,
      "çĶ³æĬ¥": 5507,
      "41": 5508,
      "åĩ½": 5509,
      "æĪ¿å±ĭ": 5510,
      "Ġtrad": 5511,
      "æĭĽæłĩ": 5512,
      "åĪĽæĦı": 5513,
      "raw": 5514,
      "II": 5515,
      "è¥¿éĥ¨": 5516,
      "éķ¿çļĦ": 5517,
      "å¿½": 5518,
      "ĠSm": 5519,
      "å°ıåŃ¦": 5520,
      "æĶ¾åľ¨": 5521,
      "olution": 5522,
      "ms": 5523,
      "åĲ¸æĶ¶": 5524,
      "Ġbusiness": 5525,
      "attle": 5526,
      "çīĽçļ®": 5527,
      "åĲĮæĦı": 5528,
      "ĠMe": 5529,
      "Ġvery": 5530,
      "æľīä¸Ģä¸ª": 5531,
      "Ġcult": 5532,
      ")ãĢģ": 5533,
      "æįķ": 5534,
      "esc": 5535,
      "å¹¶æ²¡æľī": 5536,
      "æ¸¡": 5537,
      "åºĶæĢ¥": 5538,
      "çĹħä¾ĭ": 5539,
      "å°ıçļĦ": 5540,
      "ĠMor": 5541,
      "Ġround": 5542,
      "ness": 5543,
      "ĠFrance": 5544,
      "æ¼Ķåĩº": 5545,
      "éĵ¸": 5546,
      "æ·±åº¦": 5547,
      "ĠAmer": 5548,
      "work": 5549,
      "Ġ21": 5550,
      "éĢĨ": 5551,
      "çĽ´åĪ°": 5552,
      "æĢ»ç»ĵ": 5553,
      "åĩī": 5554,
      "ĠEast": 5555,
      "å®¡æŁ¥": 5556,
      "Ġbgcolor": 5557,
      "æĺ¯ä¸ŃåĽ½": 5558,
      "----": 5559,
      "åħ¶å®ĥ": 5560,
      "çŃīå¥ĸ": 5561,
      "å²ģçļĦ": 5562,
      "ĠPort": 5563,
      "hern": 5564,
      "æĦŁè°¢": 5565,
      "Ã¶": 5566,
      "ize": 5567,
      "çĻ£": 5568,
      "ects": 5569,
      "è¾ŀ": 5570,
      "ç¡ħ": 5571,
      "å¯¿åĳ½": 5572,
      "ä¹Łå°±æĺ¯": 5573,
      "éĥ¨ç½²": 5574,
      "åľ°ä¸ĭ": 5575,
      "rem": 5576,
      "Ġcharacter": 5577,
      "ä¹ĭä¸Ń": 5578,
      "äºĳåįĹ": 5579,
      "æķĪçĽĬ": 5580,
      "field": 5581,
      "ha": 5582,
      "Ġdebut": 5583,
      "çºµ": 5584,
      "çłĤ": 5585,
      "ä½¿çĶ¨çļĦ": 5586,
      "ĠArmy": 5587,
      "æĻ®éģį": 5588,
      "æĬķèµĦèĢħ": 5589,
      "å¨ľ": 5590,
      "æ©¡": 5591,
      "æĿĥåĪ©": 5592,
      "å¯»æī¾": 5593,
      "åľ°çĤ¹": 5594,
      "Ġoften": 5595,
      "esp": 5596,
      "ĠChurch": 5597,
      "aff": 5598,
      "åĲįåįķ": 5599,
      "æĢģåº¦": 5600,
      "**": 5601,
      "Ġsold": 5602,
      "Ġport": 5603,
      "éĻµ": 5604,
      "ä¸Ģèĩ´": 5605,
      "é¢ľèī²": 5606,
      "åĳ¨è¾¹": 5607,
      "Ġ24": 5608,
      "çļĦä½ľçĶ¨": 5609,
      "Ġnov": 5610,
      "ä»ªå¼ı": 5611,
      "æħĪ": 5612,
      "åĬłçĽŁ": 5613,
      "éĺĢ": 5614,
      "åĽŃåĮº": 5615,
      "èĤł": 5616,
      "Ġå¹´": 5617,
      "äºĭæĥħ": 5618,
      "ined": 5619,
      "åĲįåŃĹ": 5620,
      "ä¸ĵé¡¹": 5621,
      "æĽ´ä¸º": 5622,
      "ç¼ºä¹ı": 5623,
      "æİĪæĿĥ": 5624,
      "æĤ¬": 5625,
      "oph": 5626,
      "Ġhelp": 5627,
      "å¾¡": 5628,
      "å¼ķåıĳ": 5629,
      "off": 5630,
      "Ġtitle": 5631,
      "ä¸Ģå¤©": 5632,
      "anish": 5633,
      "å¤§åĬĽ": 5634,
      "acy": 5635,
      "abor": 5636,
      "æŃĮæĽ²": 5637,
      "gin": 5638,
      "57": 5639,
      "ä¸Ģè·¯": 5640,
      "âĳ": 5641,
      "æĳĦå½±": 5642,
      "æĴ¤": 5643,
      "ç¡«": 5644,
      "æ£ĢéªĮ": 5645,
      "è¢Ń": 5646,
      "çļĦæĸ¹æ³ķ": 5647,
      "ti": 5648,
      "68": 5649,
      "éĿ¢åĲĳ": 5650,
      "unicip": 5651,
      "è¡¥åħħ": 5652,
      "åĪ«äºº": 5653,
      "Ġthose": 5654,
      "åĪĻæĺ¯": 5655,
      "Ġwin": 5656,
      "èµ¢å¾Ĺ": 5657,
      "å®īå¾½": 5658,
      "Ġmag": 5659,
      "Ġworks": 5660,
      "ID": 5661,
      "Cl": 5662,
      "Ġbest": 5663,
      "ĠOne": 5664,
      "æĦıå¤§åĪ©": 5665,
      "Sp": 5666,
      "æķ°åŃ¦": 5667,
      "Ġpolitic": 5668,
      "ĠBel": 5669,
      "Ġamong": 5670,
      "äºĴåĬ¨": 5671,
      "åħ¨çľģ": 5672,
      "æ¸ħæ¥ļ": 5673,
      "Ġpat": 5674,
      "åĪºæ¿Ģ": 5675,
      "åī©": 5676,
      "æĲ¬": 5677,
      "CO": 5678,
      "è®ºåĿĽ": 5679,
      "stitute": 5680,
      "èµł": 5681,
      "éĽĨä½ĵ": 5682,
      "ä¼ļåľ¨": 5683,
      "æĽ´å¥½çļĦ": 5684,
      "ocr": 5685,
      "ãĢĤãĢĬ": 5686,
      "ĠRoman": 5687,
      "æĬķæłĩ": 5688,
      "åħ¬çĽĬ": 5689,
      "é«ĺä¸Ń": 5690,
      "åĽ½åĨħå¤ĸ": 5691,
      "Ġaward": 5692,
      "åĲ«æľī": 5693,
      "Ġimport": 5694,
      "æĢĿèĢĥ": 5695,
      "irc": 5696,
      "ories": 5697,
      "æ¯ģ": 5698,
      "éĺĶ": 5699,
      "å£°æĺİ": 5700,
      "æ¯ıä¸Ģä¸ª": 5701,
      "Ġside": 5702,
      "minist": 5703,
      "åı¯ä»¥åľ¨": 5704,
      "æĲľç´¢": 5705,
      "çļĦæ°´": 5706,
      "å°±èĥ½": 5707,
      "å¯Ħ": 5708,
      "ç¥¥": 5709,
      "æ»¡æĦı": 5710,
      "ves": 5711,
      "Ġestablish": 5712,
      "Ġtechn": 5713,
      "çłĶç©¶æīĢ": 5714,
      "Ġlevel": 5715,
      "å¤§æķ°æį®": 5716,
      "çī¢": 5717,
      "æĹ¥åľ¨": 5718,
      "åŁİéķĩ": 5719,
      "åķĬ": 5720,
      "ç¢ĳ": 5721,
      "Ġthough": 5722,
      "ĠQu": 5723,
      "åŃ¦çĶŁçļĦ": 5724,
      "åİŁæĸĻ": 5725,
      "çł´åĿı": 5726,
      "åĬ²": 5727,
      "å¦Ļ": 5728,
      "ena": 5729,
      "å®¶çļĦ": 5730,
      "çĺ¤": 5731,
      "Ġexpl": 5732,
      "2002": 5733,
      "çħ§çīĩ": 5734,
      "åĽ½å¤ĸ": 5735,
      "TV": 5736,
      "Ġproduced": 5737,
      "åī²": 5738,
      "çī©çļĦ": 5739,
      "åĽ¢ä½ĵ": 5740,
      "å¯¹æĸ¹": 5741,
      "èĢĥæł¸": 5742,
      "Ġprevious": 5743,
      "èĸª": 5744,
      "ole": 5745,
      "æµ·æ´ĭ": 5746,
      "forman": 5747,
      "çļĦæķ°æį®": 5748,
      "ä¸»åĬŀ": 5749,
      "67": 5750,
      "èĤĥ": 5751,
      "err": 5752,
      "ced": 5753,
      "omm": 5754,
      "çļĦäºĭæĥħ": 5755,
      "ä¹¡æĿĳ": 5756,
      "çłĶç©¶éĻ¢": 5757,
      "ij": 5758,
      "çºªå½ķ": 5759,
      "ä¼¼ä¹İ": 5760,
      "Ġweb": 5761,
      "æıĲåīį": 5762,
      "Ġwritten": 5763,
      "éĢĤçĶ¨äºİ": 5764,
      "æĪĸæĺ¯": 5765,
      "å¦Ĥæŀľä½ł": 5766,
      "åħįçĸ«": 5767,
      "éĶ¡": 5768,
      "è°Ĳ": 5769,
      "æ¨¡åŀĭ": 5770,
      "çīĽçļ®çĻ£": 5771,
      "formation": 5772,
      "ä½ıå®ħ": 5773,
      "ç»´æĮģ": 5774,
      "åŁºåĽł": 5775,
      "æĮĩæĮ¥": 5776,
      "æĬĢæľ¯çļĦ": 5777,
      "å¿§": 5778,
      "Ġannounced": 5779,
      "Ġne": 5780,
      "é«ĺè´¨éĩı": 5781,
      "å°±åĥı": 5782,
      "ç¬¬ä¸Ģä¸ª": 5783,
      "æµģåĬ¨": 5784,
      "é¡µç¬¬": 5785,
      "åħģè®¸": 5786,
      "Ġposs": 5787,
      "æĺ¾èĳĹ": 5788,
      "èĳ£äºĭéķ¿": 5789,
      "Ġeven": 5790,
      "åĽŀåĪ°": 5791,
      "æĪĲåĪĨ": 5792,
      "eration": 5793,
      "ä»Ķ": 5794,
      "å·®å¼Ĥ": 5795,
      "itor": 5796,
      "Ġaff": 5797,
      "å¹´åºķ": 5798,
      "iol": 5799,
      "back": 5800,
      "64": 5801,
      "ney": 5802,
      "Ġinvol": 5803,
      "hel": 5804,
      "èĤĿ": 5805,
      "ploy": 5806,
      "ç§įæ¤į": 5807,
      "éĥİ": 5808,
      "Ġrole": 5809,
      "åºĻ": 5810,
      "iment": 5811,
      "å¦Īå¦Ī": 5812,
      "ĠChar": 5813,
      "orthern": 5814,
      "lo": 5815,
      "å¹³è¡¡": 5816,
      "å´ĩ": 5817,
      "é«ĺæ¸©": 5818,
      "çĶµåķĨ": 5819,
      "æĿ¡ä¾ĭ": 5820,
      "Ġengine": 5821,
      "ĠRev": 5822,
      "å°ıè¯´": 5823,
      "è·¯çº¿": 5824,
      "val": 5825,
      "åĹ": 5826,
      "å¾ĭå¸Ī": 5827,
      "rote": 5828,
      "èĢĮåľ¨": 5829,
      "ä½ľåĩº": 5830,
      "Ġ/": 5831,
      "irl": 5832,
      "è´«åĽ°": 5833,
      "Ġval": 5834,
      "omet": 5835,
      "å·¥èµĦ": 5836,
      "æĺ¯ä¸į": 5837,
      "æ°Ķä½ĵ": 5838,
      "å¹¼åĦ¿": 5839,
      "Ġlate": 5840,
      "çłĸ": 5841,
      "åħ¨å¸Ĥ": 5842,
      "è¥¿äºļ": 5843,
      "éĻķè¥¿": 5844,
      "Ġsett": 5845,
      "çīµ": 5846,
      "ç¼ĸè¾ĳ": 5847,
      "Ġ2003": 5848,
      "ades": 5849,
      "è¸ª": 5850,
      "Ġship": 5851,
      "è¿Ł": 5852,
      "åĽŀæĶ¶": 5853,
      "èµĭ": 5854,
      "æŃ£æĺ¯": 5855,
      "æīĭæľ¯": 5856,
      "æ¸Ĺ": 5857,
      "å¤§ä¼Ĺ": 5858,
      "Ġvol": 5859,
      "å£°éŁ³": 5860,
      "Ġfact": 5861,
      "59": 5862,
      "cast": 5863,
      "æĺŁæľŁ": 5864,
      "ï¼Īï¼Į": 5865,
      "ago": 5866,
      "PS": 5867,
      "ĠDivision": 5868,
      "ĠPal": 5869,
      "Ġstruct": 5870,
      "ä¼ĺæĥł": 5871,
      "èĥ½éĩı": 5872,
      "Ġepis": 5873,
      "é¡¹çĽ®çļĦ": 5874,
      "CE": 5875,
      "æıĲäº¤": 5876,
      "olic": 5877,
      "å¤ļåħĥ": 5878,
      "æ£®æŀĹ": 5879,
      "å£³": 5880,
      "ä¸ĬäºĨ": 5881,
      "åĦ¿åŃĲ": 5882,
      "æĪĲå°±": 5883,
      "åįģå¹´": 5884,
      "ĠCouncil": 5885,
      "æ¡Ĩ": 5886,
      "ĠĊĊĠĊĊ": 5887,
      "å¤§å¤§": 5888,
      "çĭĤ": 5889,
      "astern": 5890,
      "Ġmake": 5891,
      "æĭĴç»Ŀ": 5892,
      "å¾Īéļ¾": 5893,
      "itar": 5894,
      "æ·»åĬł": 5895,
      "Ġallow": 5896,
      "èĩªæ²»åĮº": 5897,
      "è®©æĪĳä»¬": 5898,
      "ream": 5899,
      "çĸı": 5900,
      "æ¡ĳ": 5901,
      "å½±è§Ĩ": 5902,
      "åŃ¦èĢħ": 5903,
      "æŁı": 5904,
      "èĩ£": 5905,
      "éĽ¾": 5906,
      "èĶ¬": 5907,
      "å¼ķè¿Ľ": 5908,
      "ĠAmerica": 5909,
      "Ġstarted": 5910,
      "ĠEuropean": 5911,
      "çļĦåİŁåĽł": 5912,
      "iron": 5913,
      "éĥ½ä¸į": 5914,
      "ä¼ļçļĦ": 5915,
      "ç¦ıå»º": 5916,
      "ults": 5917,
      "ä¿±ä¹Ĳ": 5918,
      "ç»Īäºİ": 5919,
      "ĠRober": 5920,
      "As": 5921,
      "ä¸ĵè¾ĳ": 5922,
      "åĽ½æľī": 5923,
      "ĠVal": 5924,
      "52": 5925,
      "ä¸ĬåįĬå¹´": 5926,
      "è¥¿çıŃ": 5927,
      "ots": 5928,
      "urb": 5929,
      "åŃĺåĤ¨": 5930,
      "ä¿±ä¹Ĳéĥ¨": 5931,
      "Ġyoung": 5932,
      "åĴĮåħ¶ä»ĸ": 5933,
      "lected": 5934,
      "äº§éĩı": 5935,
      "è¥¿çıŃçīĻ": 5936,
      "æīĢè°ĵ": 5937,
      "åĬłæĭ¿": 5938,
      "ĠNor": 5939,
      "æķĻèĤ²éĥ¨": 5940,
      "åĪĹè½¦": 5941,
      "è´¯å½»": 5942,
      "çļĦä¸Ń": 5943,
      "Ġbre": 5944,
      "ä¼ĺåħĪ": 5945,
      "èĭ¹": 5946,
      "ux": 5947,
      "æ³¨éĩį": 5948,
      "æİ§èĤ¡": 5949,
      "ĠJames": 5950,
      "èİ·å¾ĹäºĨ": 5951,
      "ç«ĭåį³": 5952,
      "Ġcame": 5953,
      "53": 5954,
      "è½¨éģĵ": 5955,
      "æ¶¯": 5956,
      "å»·": 5957,
      "æ´»æĢ§": 5958,
      "åĲ«éĩı": 5959,
      "æĪĺæĸĹ": 5960,
      "ä¸Ģä»£": 5961,
      "éĩĳé¢Ŀ": 5962,
      "èĩªåĬ¨åĮĸ": 5963,
      "Ġmillion": 5964,
      "éĢīæīĭ": 5965,
      "æĢ»ç»Ł": 5966,
      "Ġprocess": 5967,
      "Ġofficial": 5968,
      "éĥ¡": 5969,
      "Ġgiven": 5970,
      "CC": 5971,
      "çģĮ": 5972,
      "ä¸Ģæĺ¯": 5973,
      "Ġ2002": 5974,
      "èį¯åĵģ": 5975,
      "æľīå¾Īå¤ļ": 5976,
      "çĶŁæ´»ä¸Ń": 5977,
      "å®ļä¹ī": 5978,
      "åľ°åĮºçļĦ": 5979,
      "å·¥åķĨ": 5980,
      "Ġsport": 5981,
      "bert": 5982,
      "ĠQue": 5983,
      "åįµ": 5984,
      "åĬĽåº¦": 5985,
      "Ġinit": 5986,
      "berg": 5987,
      "ya": 5988,
      "åĽĽä¸ª": 5989,
      "æĥħåĨµä¸ĭ": 5990,
      "han": 5991,
      "ological": 5992,
      "çĻ¾åĪĨçĤ¹": 5993,
      "self": 5994,
      "éĥģ": 5995,
      "thern": 5996,
      "ĠHol": 5997,
      "çĥ¦": 5998,
      "Ġelection": 5999,
      "åıĺæĪĲ": 6000,
      "åĲĪéĩĳ": 6001,
      "Ġet": 6002,
      "åłĨ": 6003,
      "äººå·¥æĻºèĥ½": 6004,
      "æ·ĺ": 6005,
      "èħĲèļĢ": 6006,
      "çļĦè®¾è®¡": 6007,
      "ï¼ģâĢĿ": 6008,
      "IT": 6009,
      "åĳ¨æľŁ": 6010,
      "ãĢįï¼Į": 6011,
      "hic": 6012,
      "ä¸Ģæ®µ": 6013,
      "èĤºçĤİ": 6014,
      "è¸ı": 6015,
      "å¯¹æŃ¤": 6016,
      "ĠEm": 6017,
      "å±ħä½ı": 6018,
      "Ġwhat": 6019,
      "Ġcover": 6020,
      "Ġcommon": 6021,
      "Ġfre": 6022,
      "ĠStreet": 6023,
      "äººåĬĽ": 6024,
      "çºº": 6025,
      "OS": 6026,
      "Ġdevelopment": 6027,
      "èħĶ": 6028,
      "Ġturn": 6029,
      "åį±å®³": 6030,
      "align": 6031,
      "Ġpolitical": 6032,
      "çĪ±æĥħ": 6033,
      "æīĢæľīçļĦ": 6034,
      "çķª": 6035,
      "æĢ»æĺ¯": 6036,
      "åĬłéĢŁ": 6037,
      "ä¸¤äºº": 6038,
      "||": 6039,
      "ÃĹ": 6040,
      "Ġage": 6041,
      "åĨ»": 6042,
      "æİ¥è¿ĳ": 6043,
      "ä¿¡æģ¯åĮĸ": 6044,
      "å®ļæľŁ": 6045,
      "è¥¿å®ī": 6046,
      "ç¦»åŃĲ": 6047,
      "æııè¿°": 6048,
      "è¯ļä¿¡": 6049,
      "Ġwent": 6050,
      "èĭ¹æŀľ": 6051,
      "åºĶå¯¹": 6052,
      "çº¿è·¯": 6053,
      "åŁİåĮº": 6054,
      "ĠGeorge": 6055,
      "ĠGeneral": 6056,
      "br": 6057,
      "çºł": 6058,
      "åĬ¨ä½ľ": 6059,
      "å¸¦æĿ¥çļĦ": 6060,
      "çļĦä¸»": 6061,
      "è¯ŀ": 6062,
      "é¢Ħæµĭ": 6063,
      "ĠPresident": 6064,
      "Ġprop": 6065,
      "ç²Ĺ": 6066,
      "è§Ħå®ļçļĦ": 6067,
      "umni": 6068,
      "ĠBy": 6069,
      "æ¢¦æĥ³": 6070,
      "51": 6071,
      "æľĢå¥½": 6072,
      "åĪ°çļĦ": 6073,
      "æĹ¶å°ļ": 6074,
      "omas": 6075,
      "ä»ªåĻ¨": 6076,
      "çĭĹ": 6077,
      "outhern": 6078,
      "æıŃ": 6079,
      "Ġsite": 6080,
      "ĠCanada": 6081,
      "ä¸ĢæĹ¦": 6082,
      "ĠRoyal": 6083,
      "åıĤèµĽ": 6084,
      "å°Ĩåħ¶": 6085,
      "æĬ¤çĲĨ": 6086,
      "æ°ĶåĢĻ": 6087,
      "é¬": 6088,
      "éĨĩ": 6089,
      "ĠAssociation": 6090,
      "Ġmuch": 6091,
      "Ġ22": 6092,
      "çĽ¸åħ³çļĦ": 6093,
      "æĸĩçī©": 6094,
      "æ¼Ĩ": 6095,
      "é©±åĬ¨": 6096,
      "ä¸ľåĮĹ": 6097,
      "éĢļè®¯": 6098,
      "å¢ĵ": 6099,
      "èĥĨ": 6100,
      "ä½Ĩåľ¨": 6101,
      "å¹¶ä¸įæĺ¯": 6102,
      "é»Ħéĩĳ": 6103,
      "åģľæŃ¢": 6104,
      "Ġvarious": 6105,
      "æĿĥçĽĬ": 6106,
      "æ»ļ": 6107,
      "ĠPaul": 6108,
      "åıĸæ¶Ī": 6109,
      "Ġpres": 6110,
      "ointed": 6111,
      "çļĦéľĢæ±Ĥ": 6112,
      "ä¸ªçĻ¾åĪĨçĤ¹": 6113,
      "æĪĳæł¡": 6114,
      "ogn": 6115,
      "hers": 6116,
      "æĶ¶è´Ń": 6117,
      "89": 6118,
      "å½°": 6119,
      "æŁ´": 6120,
      "æĭĵå±ķ": 6121,
      "87": 6122,
      "éĩĩè®¿": 6123,
      "site": 6124,
      "ule": 6125,
      "è¾ĥå¤§": 6126,
      "ĠGermany": 6127,
      "å©´": 6128,
      "åı¯æĺ¯": 6129,
      "Ġread": 6130,
      "æĢĿç»´": 6131,
      "åİ¨": 6132,
      "æĺ¨": 6133,
      "é£ŀæľº": 6134,
      "çĨŁæĤī": 6135,
      "å¾ĹåĪ°äºĨ": 6136,
      "hib": 6137,
      "Ġcreated": 6138,
      "Ġmilitary": 6139,
      "èĴĻåı¤": 6140,
      "ĠMal": 6141,
      "ivid": 6142,
      "Ġworked": 6143,
      "æĪĲç«ĭäºİ": 6144,
      "ĠStud": 6145,
      "åĭŁ": 6146,
      "çĽ¾": 6147,
      "Ġchang": 6148,
      "éħ¯": 6149,
      "ania": 6150,
      "Ġsw": 6151,
      "çªģçĦ¶": 6152,
      "å±¥è¡Į": 6153,
      "åŃ¦å®¶": 6154,
      "å²Ń": 6155,
      "å¹¿æĴŃ": 6156,
      "æ¡Į": 6157,
      "éŁ¦": 6158,
      "ç¾½": 6159,
      "æĬ«": 6160,
      "reek": 6161,
      "æ¾³å¤§": 6162,
      "å¸¦é¢Ĩ": 6163,
      "ĠRich": 6164,
      "æĪĲçļĦ": 6165,
      "ĠMount": 6166,
      "Ġ2001": 6167,
      "çĪ±çļĦ": 6168,
      "æĦ¿æĦı": 6169,
      "MA": 6170,
      "åĨ³çŃĸ": 6171,
      "å¤©çļĦ": 6172,
      "æĢ»éĥ¨": 6173,
      "åľ°éĵģ": 6174,
      "ä¸ŃåĽ½çļĦ": 6175,
      "Ġproduction": 6176,
      "åĮĹäº¬å¸Ĥ": 6177,
      "è®¤å®ļ": 6178,
      "itte": 6179,
      "é¤Ĳé¥®": 6180,
      "è¯ĨåĪ«": 6181,
      "Ġconf": 6182,
      "åľ¨ä¸Ģèµ·": 6183,
      "Ġusing": 6184,
      "å¤įåĲĪ": 6185,
      "è´µå·ŀ": 6186,
      "èµĶ": 6187,
      "Ġjoined": 6188,
      "Ġtw": 6189,
      "éĻ¢éķ¿": 6190,
      "åĪ¶éĢłä¸ļ": 6191,
      "Ġtem": 6192,
      "600": 6193,
      "åħĭæĸ¯": 6194,
      "èµ´": 6195,
      "å¥ĳ": 6196,
      "ä¸Ģåľº": 6197,
      "åĩĮ": 6198,
      "ä¼ĳéĹ²": 6199,
      "å·¥ç¨ĭå¸Ī": 6200,
      "çĶŁç´ł": 6201,
      "54": 6202,
      "è®¿éĹ®": 6203,
      "zh": 6204,
      "çĶ·åŃĲ": 6205,
      "éĺ³åħī": 6206,
      "é¼»": 6207,
      "ç½©": 6208,
      "èį£èªī": 6209,
      "çŃĸçķ¥": 6210,
      "ached": 6211,
      "æĴŀ": 6212,
      "Ġspecial": 6213,
      "é£İæľº": 6214,
      "ĠRed": 6215,
      "åı¸æ³ķ": 6216,
      "ĠAustralian": 6217,
      "72": 6218,
      "ators": 6219,
      "ĠFl": 6220,
      "èĮ¨": 6221,
      "æ®¿": 6222,
      "å¤§çº¦": 6223,
      "æ¡Ĥ": 6224,
      "èİ²": 6225,
      "Ġmiss": 6226,
      "åįİä¸º": 6227,
      "Ġclaim": 6228,
      "åĽ½çļĦ": 6229,
      "å®ŀéĻħä¸Ĭ": 6230,
      "ä¿¡å¿ĥ": 6231,
      "èĤ¡æĿĥ": 6232,
      "Ġvideo": 6233,
      "éĴ»": 6234,
      "Ġtotal": 6235,
      "150": 6236,
      "çīĪæĿĥ": 6237,
      "æ£Ĵ": 6238,
      "Ġbecome": 6239,
      "ä¸Ĭä¸ĭ": 6240,
      "æŁľ": 6241,
      "ä»¥ä¸ĬçļĦ": 6242,
      "éĥ¨éķ¿": 6243,
      "å¤±åİ»": 6244,
      "aur": 6245,
      "iction": 6246,
      "Ġï¼Ī": 6247,
      "è´§å¸ģ": 6248,
      "'t": 6249,
      "de": 6250,
      "å»ºéĢł": 6251,
      "å±±è¥¿": 6252,
      "Ġcommunity": 6253,
      "åŁºå±Ĥ": 6254,
      "åĩłå¹´": 6255,
      "æĹ¶åĪ»": 6256,
      "Ġversion": 6257,
      "atri": 6258,
      "æĹº": 6259,
      "è¾ĥä¸º": 6260,
      "bor": 6261,
      "èĢĢ": 6262,
      "idae": 6263,
      "å§Ķæīĺ": 6264,
      "ances": 6265,
      "Ġhaving": 6266,
      "èī°": 6267,
      "ope": 6268,
      "çĬ¹": 6269,
      "63": 6270,
      "æŀĿ": 6271,
      "Ġnext": 6272,
      "Ġ100": 6273,
      "åįłæ¯Ķ": 6274,
      "åĴĮç¤¾ä¼ļ": 6275,
      "çī¹æĢ§": 6276,
      "ma": 6277,
      "unn": 6278,
      "Ġinfl": 6279,
      "Ġprofessional": 6280,
      "å®¶åħ·": 6281,
      "Ġ23": 6282,
      "è¡°": 6283,
      "rian": 6284,
      "å±Ĥæ¬¡": 6285,
      "ĠBer": 6286,
      "è®°å¿Ĩ": 6287,
      "ä»¥ä¸º": 6288,
      "æĿĤå¿Ĺ": 6289,
      "åĴĸ": 6290,
      "Ġsent": 6291,
      "æĺĤ": 6292,
      "åĲĬ": 6293,
      "å¹²çĩ¥": 6294,
      "è¿ĲåĬ¨åĳĺ": 6295,
      "å½ķåıĸ": 6296,
      "è°ĥèĬĤ": 6297,
      "åħ»èĢģ": 6298,
      "çĲĨäºĭ": 6299,
      "92": 6300,
      "ites": 6301,
      "ç©Ĩ": 6302,
      "çļĦçłĶç©¶": 6303,
      "Ġmarried": 6304,
      "Ġmar": 6305,
      "åĨ²åĩ»": 6306,
      "éĶĢéĩı": 6307,
      "ilar": 6308,
      "éĢļéģĵ": 6309,
      "94": 6310,
      "æĹ©æľŁ": 6311,
      "äºĮæĺ¯": 6312,
      "éģĵå¾·": 6313,
      "å®¡æł¸": 6314,
      "Ġproduc": 6315,
      "åį³å°Ĩ": 6316,
      "ä¿®æĶ¹": 6317,
      "ĠLou": 6318,
      "å¯¹æīĭ": 6319,
      "ä¸Ļ": 6320,
      "å¸¦åĬ¨": 6321,
      "ĠUnion": 6322,
      "æ±Łè¥¿": 6323,
      "åħ½": 6324,
      "Sh": 6325,
      "raz": 6326,
      "ference": 6327,
      "Ġ28": 6328,
      "æĦıæĢĿ": 6329,
      "åĿĬ": 6330,
      "08": 6331,
      "è½¬åĮĸ": 6332,
      "æĳĩ": 6333,
      "ĠChina": 6334,
      "èİ·åıĸ": 6335,
      "é«ĺè¾¾": 6336,
      "ä¸ĭè½½": 6337,
      "èī²å½©": 6338,
      "æµħ": 6339,
      "è½¬ç§»": 6340,
      "Ġpri": 6341,
      "èĭ±éĽĦ": 6342,
      "tr": 6343,
      "ination": 6344,
      "æľºåĻ¨äºº": 6345,
      "ani": 6346,
      "Ġgl": 6347,
      "åĩĢåĮĸ": 6348,
      "æ°¯": 6349,
      "ona": 6350,
      "Ġsol": 6351,
      "ĠMo": 6352,
      "Ġwrote": 6353,
      "Ġhost": 6354,
      "2022": 6355,
      "æ°¸è¿ľ": 6356,
      "å¥Ķ": 6357,
      "è¿ĺåı¯ä»¥": 6358,
      "1999": 6359,
      "ST": 6360,
      "å«Į": 6361,
      "Ġevery": 6362,
      "è§ĤçĤ¹": 6363,
      "æĳĺè¦ģ": 6364,
      "ĠDavid": 6365,
      "çº¢èī²": 6366,
      "è¾Ĳ": 6367,
      "éĥ½èĥ½": 6368,
      "çŃ¾è®¢": 6369,
      "unt": 6370,
      "æĿ¥äºĨ": 6371,
      "è§Ĩè§ī": 6372,
      "ä¸ľæĸ¹": 6373,
      "çº¿çļĦ": 6374,
      "åĬłæĭ¿å¤§": 6375,
      "Ġ26": 6376,
      "æł¡éķ¿": 6377,
      "éĻª": 6378,
      "Ġchurch": 6379,
      "éĥ¨ä»¶": 6380,
      "ĠMy": 6381,
      "æµĨ": 6382,
      "æĺ¯æľĢ": 6383,
      "æĶ¾å¼ĥ": 6384,
      "Ġ27": 6385,
      "å¤Ħç½ļ": 6386,
      "AA": 6387,
      "ä¼Ĳ": 6388,
      "93": 6389,
      "Ġtake": 6390,
      "çļĦå¤ĸ": 6391,
      "Ġintrod": 6392,
      "æĶ»åĩ»": 6393,
      "éĿĴå²Ľ": 6394,
      "ä¸ľåįĹ": 6395,
      "åºĶçĶ¨äºİ": 6396,
      "ittle": 6397,
      "éĢĤå½ĵ": 6398,
      "Ġprim": 6399,
      "ĠSen": 6400,
      "å¾Īå¤ļäºº": 6401,
      "å¾Īå¤§çļĦ": 6402,
      "æŃ¤åīį": 6403,
      "ateg": 6404,
      "èĮĥåĽ´åĨħ": 6405,
      "Ġfew": 6406,
      "çĽĳæİ§": 6407,
      "éļľç¢į": 6408,
      "æĺİæĺŁ": 6409,
      "è¾ĵåħ¥": 6410,
      "aken": 6411,
      "åħ±äº§": 6412,
      "éĶĻè¯¯": 6413,
      "é¢Ħç®Ĺ": 6414,
      "åĪ°è¾¾": 6415,
      "Ġposition": 6416,
      "ĠMusic": 6417,
      "ibr": 6418,
      "iography": 6419,
      "ï¼ŁâĢĿ": 6420,
      "ĠDem": 6421,
      "Sc": 6422,
      "è®¼": 6423,
      "ida": 6424,
      "PC": 6425,
      "å·¨å¤§": 6426,
      "ä¸įèī¯": 6427,
      "æĥľ": 6428,
      "62": 6429,
      "çŃīçº§": 6430,
      "Ġsongs": 6431,
      "è½¬åıĺ": 6432,
      "ER": 6433,
      "å¢ŀéĢŁ": 6434,
      "ä¸¤å¹´": 6435,
      "æĿŃå·ŀ": 6436,
      "ä¸»ç®¡éĥ¨éĹ¨": 6437,
      "ç»Ŀå¯¹": 6438,
      "erb": 6439,
      "æīĵå¼Ģ": 6440,
      "æ£ĭ": 6441,
      "æľĢä½İ": 6442,
      "ĠGroup": 6443,
      "å¼ĢåĲ¯": 6444,
      "ç¿°": 6445,
      "ä¸įéĶĻ": 6446,
      "éĹª": 6447,
      "éĹ®é¢ĺçļĦ": 6448,
      "ä¹īåĬ¡": 6449,
      "ä¾¿åĪ©": 6450,
      "åįģä¸ī": 6451,
      "æ°ĳåĽ½": 6452,
      "ä»¬çļĦ": 6453,
      "èĢģå¹´": 6454,
      "ç©ºè°ĥ": 6455,
      "åŁºç¡Ģè®¾æĸ½": 6456,
      "å¥³åŃĲ": 6457,
      "Ġbeh": 6458,
      "ç¿¼": 6459,
      "æĤ¦": 6460,
      "oints": 6461,
      "åĩŃåĢŁ": 6462,
      "Ġï¼Į": 6463,
      "itect": 6464,
      "ä½ĽæķĻ": 6465,
      "Ġperforman": 6466,
      "éĿ¢è¯ķ": 6467,
      "Ġreturned": 6468,
      "æĻļä¸Ĭ": 6469,
      "ville": 6470,
      "åĲĪæ³ķ": 6471,
      "æĵ¦": 6472,
      "Ġ2022": 6473,
      "èĪŀåı°": 6474,
      "æŁĲäºĽ": 6475,
      "éĤ£ä¸ª": 6476,
      "ĠAcadem": 6477,
      "Ġfootballers": 6478,
      "æ¸ħæ´Ĺ": 6479,
      "åı°åĮĹ": 6480,
      "sequ": 6481,
      "åı¯è§ģ": 6482,
      "ç½ĳåıĭ": 6483,
      "èĬ³": 6484,
      "åĲĮå¹´": 6485,
      "æ±Ĺ": 6486,
      "å¹¿è¥¿": 6487,
      "æ°ĳä¸»": 6488,
      "å®¶äºº": 6489,
      "GB": 6490,
      "Ġfem": 6491,
      "Ġway": 6492,
      "æĹłäºº": 6493,
      "è¡ĮçļĦ": 6494,
      "éĽĨæĪĲ": 6495,
      "å¼ķé¢Ĩ": 6496,
      "éŃı": 6497,
      "ä»£çłģ": 6498,
      "ç¡®å®ŀ": 6499,
      "æ°¢": 6500,
      "é¬¼": 6501,
      "æ·Ģ": 6502,
      "ump": 6503,
      "Ph": 6504,
      "åĪĨç¦»": 6505,
      "....": 6506,
      "ĠClub": 6507,
      "Ġpopular": 6508,
      "Ġexamp": 6509,
      "ä¸įçŁ¥éģĵ": 6510,
      "ä½¿åĳ½": 6511,
      "æĭĸ": 6512,
      "æµ©": 6513,
      "åĲĦçº§": 6514,
      "ç¨Ģ": 6515,
      "TC": 6516,
      "Ġpresident": 6517,
      "åĽ¾çīĩ": 6518,
      "itz": 6519,
      "ç§ī": 6520,
      "ention": 6521,
      "ä¸ĸçķĮä¸Ĭ": 6522,
      "Ġevents": 6523,
      "æĹłçº¿": 6524,
      "å¥Ī": 6525,
      "ä¸įç®¡": 6526,
      "æıĲéĨĴ": 6527,
      "ĠMart": 6528,
      "æŁ³": 6529,
      "æ¶ĤæĸĻ": 6530,
      "å¯ĵ": 6531,
      "èİī": 6532,
      "ä¸ªæĢ§": 6533,
      "ä¼¤å®³": 6534,
      "åĲĦå¤§": 6535,
      "ĠProv": 6536,
      "ĠHall": 6537,
      "åħļçļĦ": 6538,
      "æĹĹä¸ĭ": 6539,
      "æ·±åĪ»": 6540,
      "ä¸Ģæµģ": 6541,
      "stitut": 6542,
      "åį°åĪ·": 6543,
      "æĪĴ": 6544,
      "Ġdirector": 6545,
      "Ġmult": 6546,
      "åĩºå¸Ń": 6547,
      "äºĶå¹´": 6548,
      "å°Ŀè¯ķ": 6549,
      "èĬ¬": 6550,
      "åİŁçĲĨ": 6551,
      "åŁ¹èĤ²": 6552,
      "è¿ĳæľŁ": 6553,
      "view": 6554,
      "è¶ħçº§": 6555,
      "Ġmatch": 6556,
      "å®¶æĹı": 6557,
      "åıĤè§Ĥ": 6558,
      "Ġpartic": 6559,
      "Ġ1990": 6560,
      "åįłåľ°": 6561,
      "è¯īè®¼": 6562,
      "mon": 6563,
      "çľł": 6564,
      "After": 6565,
      "éĶĪéĴ¢": 6566,
      "ston": 6567,
      "è®¾å¤ĩçļĦ": 6568,
      "Ġbeg": 6569,
      "çĩķ": 6570,
      "ming": 6571,
      "å¾Īå¿«": 6572,
      "arliam": 6573,
      "ä¿ĿçķĻ": 6574,
      "æľįåĬ¡çļĦ": 6575,
      "å¤§éĩıçļĦ": 6576,
      "Ġtimes": 6577,
      "èµ¤": 6578,
      "ĠBas": 6579,
      "uce": 6580,
      "è¯ĬæĸŃ": 6581,
      "uz": 6582,
      "ä¸Ńæĸĩ": 6583,
      "âĢĿï¼Ī": 6584,
      "ying": 6585,
      "æĸ¤": 6586,
      "åĢ¡": 6587,
      "é¡¾å®¢": 6588,
      "ĠMag": 6589,
      "åĩºåıĳ": 6590,
      "æĺ¯ä¸Ģå®¶": 6591,
      "ources": 6592,
      "Ġhig": 6593,
      "æī¿è¯º": 6594,
      "éķĢ": 6595,
      "çĿĽ": 6596,
      "Ġpract": 6597,
      "çº²": 6598,
      "åĻª": 6599,
      "éĢĬ": 6600,
      "ä¸Ńåħ±": 6601,
      "odes": 6602,
      "æĥħæĦŁ": 6603,
      "Ġneed": 6604,
      "äº§ä¸ļéĵ¾": 6605,
      "é¥±": 6606,
      "è¯±": 6607,
      "Ġwithout": 6608,
      "ĠÃ": 6609,
      "æīĢå¾Ĺ": 6610,
      "Ġstory": 6611,
      "aughter": 6612,
      "Ġteams": 6613,
      "ĠDuring": 6614,
      "Ġalbums": 6615,
      "æĵİ": 6616,
      "åĬłçĥŃ": 6617,
      "Ġcapt": 6618,
      "ĠItal": 6619,
      "åĳ¨åĽ´": 6620,
      "ä¸ĵæ³¨": 6621,
      "Ġsocial": 6622,
      "å¥³åĦ¿": 6623,
      "91": 6624,
      "ä¸Ģå¸¦": 6625,
      "ãĢįãĢĤ": 6626,
      "å®ŀçİ°äºĨ": 6627,
      "arliament": 6628,
      "åŃ¤": 6629,
      "åŀĤ": 6630,
      "ç¨į": 6631,
      "å¹¿ä¸ľçľģ": 6632,
      "oor": 6633,
      "Ġvoc": 6634,
      "ĠVir": 6635,
      "çĶ¨æĿ¥": 6636,
      "inese": 6637,
      "èĢĥå¯Ł": 6638,
      "é«ĺäºİ": 6639,
      "ç¢°": 6640,
      "Ġfriend": 6641,
      "atter": 6642,
      "ĠJos": 6643,
      "æ±¡æ°´å¤ĦçĲĨ": 6644,
      "çĶŁæ¶¯": 6645,
      "çĶµæ°Ķ": 6646,
      "æľīæĹ¶": 6647,
      "Ġgreat": 6648,
      "éĹ´çļĦ": 6649,
      "æµ·æĭĶ": 6650,
      "æĹ¥çļĦ": 6651,
      "Ġ()": 6652,
      "ä¿Ĭ": 6653,
      "è½¦åŀĭ": 6654,
      "æĹħå®¢": 6655,
      "åĪ¤æĸŃ": 6656,
      "ĠCompany": 6657,
      "æĻ¯è§Ĥ": 6658,
      "çļĦå¸Ĥåľº": 6659,
      "84": 6660,
      "å¿į": 6661,
      "wh": 6662,
      "åĳ¼åĲ¸": 6663,
      "åĪ°åºķ": 6664,
      "mit": 6665,
      "ending": 6666,
      "å®īåħ¨çĶŁäº§": 6667,
      "ç¬¬åħŃ": 6668,
      "éĢīä¸¾": 6669,
      "It": 6670,
      "ini": 6671,
      "Ġopened": 6672,
      "èµĦè´¨": 6673,
      "Ġdirected": 6674,
      "è¿Ŀåıį": 6675,
      "å¥¥è¿Ĳ": 6676,
      "çŃīåľ°": 6677,
      "èĪĴéĢĤ": 6678,
      "åĬ¨æĢģ": 6679,
      "Ġsk": 6680,
      "61": 6681,
      "æĶ¶è´¹": 6682,
      "ĠHen": 6683,
      "åĨĽäºĭ": 6684,
      "uff": 6685,
      "åĤ¬": 6686,
      "ĠCr": 6687,
      "ç¼Ĩ": 6688,
      "wood": 6689,
      "éĺ¿å°Ķ": 6690,
      "ĠSociety": 6691,
      "äºı": 6692,
      "Ġparticip": 6693,
      "=#": 6694,
      "å¼¥": 6695,
      "èĭ±æĸĩ": 6696,
      "ä¸īå¤§": 6697,
      "æī§æ³ķ": 6698,
      "æĸ°åĮº": 6699,
      "Ġresearch": 6700,
      "èģĮè´£": 6701,
      "ç¡®è¯Ĭ": 6702,
      "äº§çĶŁçļĦ": 6703,
      "lic": 6704,
      "çī©èģĶç½ĳ": 6705,
      "ç²¾å½©": 6706,
      "ç¼ĸåĪ¶": 6707,
      "å¢ĥåĨħ": 6708,
      "ç²¾åĩĨ": 6709,
      "05": 6710,
      "æī¶è´«": 6711,
      "ividual": 6712,
      "Ġé¥°": 6713,
      "èĶ¬èıľ": 6714,
      "anies": 6715,
      "åºŁæ°´": 6716,
      "center": 6717,
      "ĠAcc": 6718,
      "ĠEurope": 6719,
      "çļĦåĨħå®¹": 6720,
      "éĺ²æĬ¤": 6721,
      "ĠMex": 6722,
      "ä¸Ģçº§": 6723,
      "Ġhowever": 6724,
      "ashington": 6725,
      "æĬ¼": 6726,
      "ç¦ģæŃ¢": 6727,
      "aper": 6728,
      "æľīæķĪçļĦ": 6729,
      "82": 6730,
      "åĬŀåŃ¦": 6731,
      "Ġident": 6732,
      "ç¿»è¯ĳ": 6733,
      "Ġhalf": 6734,
      "åľ¨è¿ĻéĩĮ": 6735,
      "estival": 6736,
      "Mar": 6737,
      "æĽ¹": 6738,
      "è¾¨": 6739,
      "Ġeconom": 6740,
      "å¹¶éĿŀ": 6741,
      "çĹħæĥħ": 6742,
      "Ġattack": 6743,
      "èĢķ": 6744,
      "iles": 6745,
      "èĢģäºº": 6746,
      "è¶³å¤Ł": 6747,
      "ä¸ĭäºĨ": 6748,
      "åĪ©çİĩ": 6749,
      "ä¹Łè¦ģ": 6750,
      "é£ŁçĶ¨": 6751,
      "ĠList": 6752,
      "åıĸå¾ĹäºĨ": 6753,
      "used": 6754,
      "ä¸Ńæľī": 6755,
      "æĦŁæĥħ": 6756,
      "ising": 6757,
      "éĶĮ": 6758,
      "äºĪä»¥": 6759,
      "éĩĮéĿ¢": 6760,
      "aign": 6761,
      "83": 6762,
      "æµ·åįĹ": 6763,
      "å¼ĺ": 6764,
      "åĩĢåĪ©æ¶¦": 6765,
      "çĶŁåŃĺ": 6766,
      "å¼ºçĥĪ": 6767,
      "å¤ĸçļĦ": 6768,
      "é»ĳèī²": 6769,
      "ification": 6770,
      "Ġcomb": 6771,
      "è¯ķçĤ¹": 6772,
      "æĢ§è´¨": 6773,
      "ä»¥ä¸ĭç®Ģç§°": 6774,
      "éŀĭ": 6775,
      "èĢĮä¸į": 6776,
      "æľįè£ħ": 6777,
      "Ġbrother": 6778,
      "Ġfull": 6779,
      "now": 6780,
      "çĶµè§Ĩåī§": 6781,
      "rd": 6782,
      "ç¤¾äº¤": 6783,
      "iddle": 6784,
      "ä¹Łèĥ½": 6785,
      "ç¢±": 6786,
      "less": 6787,
      "å¼¯": 6788,
      "ership": 6789,
      "year": 6790,
      "Jo": 6791,
      "ä»ĸè¯´": 6792,
      "Ġattem": 6793,
      "ç½Ĺé©¬": 6794,
      "ĠMary": 6795,
      "åĴĮè°Ĳ": 6796,
      "æĭ¨": 6797,
      "è®²è¿°": 6798,
      "ä¼ĺçĤ¹": 6799,
      "ä¹Łå°Ĩ": 6800,
      "ä¸įä¹ħ": 6801,
      "æĪĪ": 6802,
      "isl": 6803,
      "Ġbroad": 6804,
      "èį£èİ·": 6805,
      "è½»æĿ¾": 6806,
      "Ġinf": 6807,
      "ĠThese": 6808,
      "åĽ½å®¶çº§": 6809,
      "Ġcontrol": 6810,
      "èģĬ": 6811,
      "çº·çº·": 6812,
      "sy": 6813,
      "1998": 6814,
      "ä»°": 6815,
      "Film": 6816,
      "Ġmid": 6817,
      "69": 6818,
      "Ġhon": 6819,
      "ä¸Ĭå¹´": 6820,
      "Ġstudents": 6821,
      "ï¿": 6822,
      "lement": 6823,
      "Ġsee": 6824,
      "burg": 6825,
      "Ġcontinued": 6826,
      "è¿ĩæ»¤": 6827,
      "åĬŁçİĩ": 6828,
      "æľ¬äºº": 6829,
      "åŁĭ": 6830,
      "åıĳçĹħ": 6831,
      "ĠDev": 6832,
      "è¡Ģç®¡": 6833,
      "è£ħä¿®": 6834,
      "ittee": 6835,
      "Ġregion": 6836,
      "ĠSl": 6837,
      "Ġroad": 6838,
      "ĠPri": 6839,
      "åı¯èĥ½æĺ¯": 6840,
      "å¾Īå¥½çļĦ": 6841,
      "æĢ»é¢Ŀ": 6842,
      "åħ¸åŀĭ": 6843,
      "ĠGames": 6844,
      "Ġdi": 6845,
      "ä¸²": 6846,
      "ä»ĸäºº": 6847,
      "èľľ": 6848,
      "åĳ¨å¹´": 6849,
      "Ġinvest": 6850,
      "ketball": 6851,
      "aine": 6852,
      "Ġindust": 6853,
      "åı¦ä¸Ģæĸ¹éĿ¢": 6854,
      "Ġeducation": 6855,
      "ä¸įéĶĪéĴ¢": 6856,
      "mar": 6857,
      "ills": 6858,
      "ĠKingdom": 6859,
      "åİĭç¼©": 6860,
      "rick": 6861,
      "åĪĨåĪ«ä¸º": 6862,
      "Ġlost": 6863,
      "ĠBlack": 6864,
      "ĠRoad": 6865,
      "æŁ¥è¯¢": 6866,
      "ä¿Ŀåģ¥": 6867,
      "73": 6868,
      "Ġgroups": 6869,
      "èĤ¾": 6870,
      "æ··åĩĿ": 6871,
      "çĶµåĻ¨": 6872,
      "å³¡": 6873,
      "men": 6874,
      "å°±è¦ģ": 6875,
      "æĻ°": 6876,
      "çļĦä¸ĵä¸ļ": 6877,
      "Â°": 6878,
      "å¤§åŃ¦çĶŁ": 6879,
      "Ġcompleted": 6880,
      "åĲĮä¸Ģ": 6881,
      "æĪĸè®¸": 6882,
      "74": 6883,
      "Ġright": 6884,
      "è¢«ç§°ä¸º": 6885,
      "AT": 6886,
      "ĠInstitute": 6887,
      "æĨ": 6888,
      "åĪĩå®ŀ": 6889,
      "è°¨": 6890,
      "Ġstar": 6891,
      "ä¹ĭä¸ĭ": 6892,
      "åıĳçļĦ": 6893,
      "æ³³": 6894,
      "æĶ¹è¿Ľ": 6895,
      "ĠZeal": 6896,
      "ĠLaw": 6897,
      "atural": 6898,
      "å¼ķæĵİ": 6899,
      "71": 6900,
      "è¾£": 6901,
      "ada": 6902,
      "æĺ¯ä¸ª": 6903,
      "åĲ¹": 6904,
      "æ·±åĮĸ": 6905,
      "åı¯æĮģç»Ń": 6906,
      "Ġconn": 6907,
      "aged": 6908,
      "Ġ1999": 6909,
      "èµļ": 6910,
      "ĠHistor": 6911,
      "arth": 6912,
      "çŁ¥è¯Ĩäº§æĿĥ": 6913,
      "å°ºå¯¸": 6914,
      "åĮĢ": 6915,
      "èĳĹä½ľ": 6916,
      "ĠFirst": 6917,
      "å¤ļæł·": 6918,
      "æķĻç»ĥ": 6919,
      "è´Ńçī©": 6920,
      "åŁİä¹¡": 6921,
      "çĸ«èĭĹ": 6922,
      "éļ¶": 6923,
      "éŃĤ": 6924,
      "èĩ³äºİ": 6925,
      "éĥ¨éĺŁ": 6926,
      "ĠArch": 6927,
      "æħİ": 6928,
      "å·¨å¤§çļĦ": 6929,
      "Ġproper": 6930,
      "ger": 6931,
      "å¤ļå®¶": 6932,
      "æĥ³åĪ°": 6933,
      "ç®Ń": 6934,
      "ĠSam": 6935,
      "Ġlim": 6936,
      "Ġmy": 6937,
      "ges": 6938,
      "ĠWhen": 6939,
      "ä¸Ģä¸ªäºº": 6940,
      "é¢ĦæľŁ": 6941,
      "ĠZealand": 6942,
      "ä¹Łè®¸": 6943,
      "ä¸ĵçĶ¨": 6944,
      "æ£ī": 6945,
      "oul": 6946,
      "ç»´çĶŁç´ł": 6947,
      "Ġrecorded": 6948,
      "urk": 6949,
      "è½¬æį¢": 6950,
      "ĠCenter": 6951,
      "eel": 6952,
      "ili": 6953,
      "ucted": 6954,
      "å¸¦çĿĢ": 6955,
      "ç¾İå¥½": 6956,
      "æĺ¯ä»¥": 6957,
      "çī©ä¸ļ": 6958,
      "ĠâĢ": 6959,
      "è¯Ħè®º": 6960,
      "elt": 6961,
      "åľ¨è¿Ļä¸ª": 6962,
      "æķ´çĲĨ": 6963,
      "åıĳåĩº": 6964,
      "æĬ¥èĢĥ": 6965,
      "æķ°æį®æĺ¾ç¤º": 6966,
      "Ġdays": 6967,
      "æµ¸": 6968,
      "æ°´æ³¥": 6969,
      "ç§ĺä¹¦": 6970,
      "æ¡£æ¡Ī": 6971,
      "ella": 6972,
      "åķ¡": 6973,
      "ĠRecords": 6974,
      "Ġsqu": 6975,
      "æĶ¶åĪ°": 6976,
      "ĠServ": 6977,
      "etwork": 6978,
      "è¾ĵéĢģ": 6979,
      "æģ°": 6980,
      "çĶ¨éĢĶ": 6981,
      "ä¼łç»ŁçļĦ": 6982,
      "ĠÐ": 6983,
      "ä¾ĽåºĶåķĨ": 6984,
      "è´¤": 6985,
      "æĭħå¿ĥ": 6986,
      "å®ļåĪ¶": 6987,
      "Ġpoint": 6988,
      "çĽĴ": 6989,
      "çĸ«æĥħéĺ²æİ§": 6990,
      "ç«ŀèµĽ": 6991,
      "SE": 6992,
      "ala": 6993,
      "åĲĪå¹¶": 6994,
      "éĺ²æ²»": 6995,
      "æ¯«ç±³": 6996,
      "åıįå¯¹": 6997,
      "ells": 6998,
      "ç»ĨèĬĤ": 6999,
      "èĬĿ": 7000,
      "Ġview": 7001,
      "æ¯ıä¸Ģ": 7002,
      "Ġalumni": 7003,
      "craft": 7004,
      "Ġfounded": 7005,
      "å·²æľī": 7006,
      "çĽĹ": 7007,
      "ĠRussian": 7008,
      "ä¸ľéĥ¨": 7009,
      "Ġconsidered": 7010,
      "åħ¨æĸ°": 7011,
      "ĠMuseum": 7012,
      "Ġ1980": 7013,
      "79": 7014,
      "å±ĳ": 7015,
      "Ġappointed": 7016,
      "çļĦçĶŁäº§": 7017,
      "ä¸Ģç³»åĪĹ": 7018,
      "ç²īä¸Ŀ": 7019,
      "ç«ŀäºīåĬĽ": 7020,
      "åħĦå¼Ł": 7021,
      "Ġrelations": 7022,
      "å¾Īå¥½": 7023,
      "01": 7024,
      "æ¿Ģåħī": 7025,
      "åīª": 7026,
      "åİŁæľ¬": 7027,
      "aves": 7028,
      "æĶ¯åĩº": 7029,
      "æĪĲä¸ºäºĨ": 7030,
      "ĠCath": 7031,
      "çĤ®": 7032,
      "ellow": 7033,
      "è¾ĥé«ĺ": 7034,
      "ĠTV": 7035,
      "éªĹ": 7036,
      "ĠMad": 7037,
      "Ġcoach": 7038,
      "Ġ=": 7039,
      "idge": 7040,
      "Ġreal": 7041,
      "ĠPress": 7042,
      "æıĲåĩºäºĨ": 7043,
      "çĶµæºĲ": 7044,
      "è¾ħåĬ©": 7045,
      "idence": 7046,
      "Pro": 7047,
      "è´¢äº§": 7048,
      "çĽĪåĪ©": 7049,
      "æĸ°çĸĨ": 7050,
      "ĠIsland": 7051,
      "çĪ·": 7052,
      "å°½éĩı": 7053,
      "å½¢åĬ¿": 7054,
      "è¾Ī": 7055,
      "Ġfind": 7056,
      "çĶµæľº": 7057,
      "åĪĨéħį": 7058,
      "åı¥è¯Ŀ": 7059,
      "ĠVol": 7060,
      "åľºæ¯ĶèµĽ": 7061,
      "åľŁå£¤": 7062,
      "æŃ¤æĹ¶": 7063,
      "éĢłåŀĭ": 7064,
      "åĭĥ": 7065,
      "çº½çº¦": 7066,
      "Ġkm": 7067,
      "äººä¸º": 7068,
      "éĿĴæĺ¥": 7069,
      "Ġ50": 7070,
      "åıĳå¸ĥçļĦ": 7071,
      "Tr": 7072,
      "ĠChe": 7073,
      "æ©¡èĥ¶": 7074,
      "BS": 7075,
      "çī©åĵģ": 7076,
      "ĠCentral": 7077,
      "Ġreview": 7078,
      "ĠCanadian": 7079,
      "ĠJapanese": 7080,
      "asons": 7081,
      "è°ĥçłĶ": 7082,
      "åĬłåĿ¡": 7083,
      "æĢ»è£ģ": 7084,
      "çĨĬ": 7085,
      "ç»ıæµİåıĳå±ķ": 7086,
      "çľ¼çĿĽ": 7087,
      "ä¸Ĭå¸Ĥåħ¬åı¸": 7088,
      "ĠAlex": 7089,
      "Ġsimilar": 7090,
      "oted": 7091,
      "Ġservices": 7092,
      "éĢĤçĶ¨": 7093,
      "ĠWe": 7094,
      "Ġcaus": 7095,
      "ä¸ľäº¬": 7096,
      "éĢıéľ²": 7097,
      "Ġparty": 7098,
      "æīĢéľĢ": 7099,
      "åĴĸåķ¡": 7100,
      "120": 7101,
      "èİİ": 7102,
      "ĠCourt": 7103,
      "ĠAcademy": 7104,
      "ĠTown": 7105,
      "09": 7106,
      "è¥¿åįĹ": 7107,
      "è®©æĪĳ": 7108,
      "Ġins": 7109,
      "é¤Ĳåİħ": 7110,
      "Ġsigned": 7111,
      "è´º": 7112,
      "81": 7113,
      "Ġfurther": 7114,
      "éĥ½è¦ģ": 7115,
      "è§Ħæł¼": 7116,
      "è¡¥è´´": 7117,
      "Ġareas": 7118,
      "åĩºçİ°äºĨ": 7119,
      "éī´å®ļ": 7120,
      "åŃŁ": 7121,
      "æľŁéĻĲ": 7122,
      "itive": 7123,
      "æ¼Ĥ": 7124,
      "ï¿½": 7125,
      "Ġz": 7126,
      "èĬ¯çīĩ": 7127,
      "è¿ĺåľ¨": 7128,
      "èħº": 7129,
      "ĠBest": 7130,
      "Ġcoll": 7131,
      "rey": 7132,
      "ä¸īè§Ĵ": 7133,
      "åıĳæĺİ": 7134,
      "æī¿åĮħ": 7135,
      "km": 7136,
      "å¨ĺ": 7137,
      "Ġvict": 7138,
      "%ãĢģ": 7139,
      "èħĬ": 7140,
      "æĥ³æ³ķ": 7141,
      "å®ĹæķĻ": 7142,
      "Ġelected": 7143,
      "å¯ĨåĪĩ": 7144,
      "AC": 7145,
      "åľ°éĿ¢": 7146,
      "éĿĴå°ĳå¹´": 7147,
      "Ġpoints": 7148,
      "ĠYou": 7149,
      "æľĢåĪĿ": 7150,
      "ĠFilm": 7151,
      "åĺ´": 7152,
      "Ġdest": 7153,
      "å½ĵå¹´": 7154,
      "Ġ29": 7155,
      "Ġsurv": 7156,
      "èĶ¡": 7157,
      "èĵĦ": 7158,
      "Ġwife": 7159,
      "ä¼ĺèī¯": 7160,
      "å¤§å¸Ī": 7161,
      "å§ĳ": 7162,
      "ĠItalian": 7163,
      "ĠWashington": 7164,
      "ĠGrand": 7165,
      "1990": 7166,
      "New": 7167,
      "æĳ¸": 7168,
      "ç§įç±»": 7169,
      "æ°ĽåĽ´": 7170,
      "æ°ĳä¼Ĺ": 7171,
      "ä¼łæī¿": 7172,
      "åį«æĺŁ": 7173,
      "å¤¹": 7174,
      "ĠSing": 7175,
      "Ġcase": 7176,
      "é¢Ī": 7177,
      "åįģåĽĽ": 7178,
      "ishing": 7179,
      "ĠDon": 7180,
      "éĴ¢éĵģ": 7181,
      "Ġ1998": 7182,
      "åıĺæĽ´": 7183,
      "ĠRobert": 7184,
      "åħ¨åĬĽ": 7185,
      "æīĵåį°": 7186,
      "éĥ½åı¯ä»¥": 7187,
      "å§ľ": 7188,
      "èĥľåĪ©": 7189,
      "çļĦä½¿çĶ¨": 7190,
      "åĮ»å¸Ī": 7191,
      "Ġ:": 7192,
      "æĤŁ": 7193,
      "ä¼łéĢĴ": 7194,
      "çĶŁæ´»çļĦ": 7195,
      "æĮ¤": 7196,
      "è¯Ħå®¡": 7197,
      "è¾©": 7198,
      "Ġimportant": 7199,
      "ä¼ļéķ¿": 7200,
      "åĿª": 7201,
      "rish": 7202,
      "è¾ĵåĩº": 7203,
      "FC": 7204,
      "æ¸Ķ": 7205,
      "éĩĬæĶ¾": 7206,
      "è§Ĩä¸º": 7207,
      "Ġwebsite": 7208,
      "ĠFlor": 7209,
      "UR": 7210,
      "åĲĦèĩª": 7211,
      "éĶ»": 7212,
      "å°±åľ¨": 7213,
      "æľĢå¥½çļĦ": 7214,
      "èĩŃ": 7215,
      "ä¹ĭè·¯": 7216,
      "ements": 7217,
      "ĠFootball": 7218,
      "åĲĲ": 7219,
      "è¶ĬåįĹ": 7220,
      "æĸ°åĬłåĿ¡": 7221,
      "Ġinflu": 7222,
      "ä¸ĺ": 7223,
      "ĠSal": 7224,
      "çĽĳçĿ£ç®¡çĲĨ": 7225,
      "åį±æľº": 7226,
      "å¼Ĥå¸¸": 7227,
      "ym": 7228,
      "Ġhold": 7229,
      "å¼Ģæĭĵ": 7230,
      "åĿĳ": 7231,
      "ç§¯ç´¯": 7232,
      "å¸ĪçĶŁ": 7233,
      "å±±ä¸ľçľģ": 7234,
      "åĴĮå¹³": 7235,
      "çļĦèĥ½åĬĽ": 7236,
      "å®ŀä½ĵ": 7237,
      "åİĺ": 7238,
      "Ġten": 7239,
      "å¤§å°ı": 7240,
      "éĺģ": 7241,
      "åİĤåķĨ": 7242,
      "IC": 7243,
      "å¥ĸåĬ±": 7244,
      "olit": 7245,
      "1997": 7246,
      "å¤©ä¸ĭ": 7247,
      "è¿ĩçļĦ": 7248,
      "Ġpriv": 7249,
      "ĠAngel": 7250,
      "Ġdeveloped": 7251,
      "æĲŀ": 7252,
      "DP": 7253,
      "Ġleague": 7254,
      "è¿ĺä¼ļ": 7255,
      "ĠMont": 7256,
      "æ¼ĶåĶ±": 7257,
      "ĠAfrica": 7258,
      "æ»ĭ": 7259,
      "ique": 7260,
      "Ġren": 7261,
      "æī®": 7262,
      "çĪµ": 7263,
      "éĺ¿éĩĮ": 7264,
      "itch": 7265,
      "æļ¨": 7266,
      "çļĦè§Ħå®ļ": 7267,
      "ĠFranc": 7268,
      "ĠMac": 7269,
      "åĮºåĪ«": 7270,
      "Ġdata": 7271,
      "æľºéģĩ": 7272,
      "æĹ¥ä¸ĭåįĪ": 7273,
      "ĠSummer": 7274,
      "Ġenc": 7275,
      "æľīåĪ©äºİ": 7276,
      "ably": 7277,
      "èº«è¾¹": 7278,
      "olf": 7279,
      "Ġhuman": 7280,
      "åįıåĲĮ": 7281,
      "Ġrelease": 7282,
      "æ¾³å¤§åĪ©äºļ": 7283,
      "eph": 7284,
      "å½¢æĪĲäºĨ": 7285,
      "æĹ¥ä¸ĬåįĪ": 7286,
      "LED": 7287,
      "åģļäºĨ": 7288,
      "ĠRepublic": 7289,
      "Ġaut": 7290,
      "å¸ĪèĮĥ": 7291,
      "ä¾¯": 7292,
      "å®¡æī¹": 7293,
      "æĹ¥æľŁ": 7294,
      "ä¸Ĭæµ·å¸Ĥ": 7295,
      "ç¥Ń": 7296,
      "åĬ©äºİ": 7297,
      "ĠWith": 7298,
      "ĠTex": 7299,
      "Ġparticular": 7300,
      "åı¯ä»¥è¯´": 7301,
      "é¸£": 7302,
      "gen": 7303,
      "åĲĪæĪĲ": 7304,
      "éĽĩ": 7305,
      "å°±æľī": 7306,
      "æ¸ħæĻ°": 7307,
      "FA": 7308,
      "åħ»æ®ĸ": 7309,
      "æľ¬ç«Ļ": 7310,
      "avel": 7311,
      "é¥°æ¼Ķ": 7312,
      "ele": 7313,
      "ycl": 7314,
      "æľªæĿ¥çļĦ": 7315,
      "çĶ¨åľ°": 7316,
      "Ã¤": 7317,
      "çĮĽ": 7318,
      "å°ıç¼ĸ": 7319,
      "arter": 7320,
      "çº³åħ¥": 7321,
      "å¤ıåŃ£": 7322,
      "ä¼łæĦŁ": 7323,
      "Ġbirth": 7324,
      "éģ¥": 7325,
      "åĲĪéĢĤ": 7326,
      "Ġmother": 7327,
      "çĶ·æĢ§": 7328,
      "å¤ĸåĽ½": 7329,
      "æĶ¶å½ķ": 7330,
      "é£ŀè¡Į": 7331,
      "ï¼īï¼Ľ": 7332,
      "çĶŁäº§çļĦ": 7333,
      "åıī": 7334,
      "Ġless": 7335,
      "éħ·": 7336,
      "åĨ¶": 7337,
      "ä¸Ģæī¹": 7338,
      "ota": 7339,
      "æł¼åħ°": 7340,
      "æ¡Īä¾ĭ": 7341,
      "é¦ĸå¸Ń": 7342,
      "è¥¿åĮĹ": 7343,
      "ĠNe": 7344,
      "èµ°åĲĳ": 7345,
      "èħ¿": 7346,
      "èħ¾è®¯": 7347,
      "anding": 7348,
      "Ġappeared": 7349,
      "istic": 7350,
      "ç®Ģä»ĭ": 7351,
      "çļĦä¸ĢäºĽ": 7352,
      "åıĳåĬ¨æľº": 7353,
      "ude": 7354,
      "ä¸ŃéĹ´": 7355,
      "æĤł": 7356,
      "å®Įç¾İ": 7357,
      "ĠMiss": 7358,
      "æ¯ıä¸ªäºº": 7359,
      "aterial": 7360,
      "Ġgrow": 7361,
      "ä»²": 7362,
      "Ġgood": 7363,
      "å®ł": 7364,
      "be": 7365,
      "ä¸ĭåĪĹ": 7366,
      "ä¸įçĶ¨": 7367,
      "çĶ»éĿ¢": 7368,
      "Ġphot": 7369,
      "Ġdiv": 7370,
      "Ġtradition": 7371,
      "iers": 7372,
      "Ġphys": 7373,
      "here": 7374,
      "ĠMet": 7375,
      "çļĦåŁºç¡Ģä¸Ĭ": 7376,
      "é¦Ī": 7377,
      "é«ĺèĢĥ": 7378,
      "ĠCont": 7379,
      "uild": 7380,
      "è¿Ļä¹Łæĺ¯": 7381,
      "Ġguitar": 7382,
      "äºĭä¸ļåįķä½į": 7383,
      "ĠThomas": 7384,
      "ç¾¤ä½ĵ": 7385,
      "ospital": 7386,
      "ĠAfrican": 7387,
      "ergy": 7388,
      "çİ¯å¢ĥä¿ĿæĬ¤": 7389,
      "Ġreported": 7390,
      "æ··åĩĿåľŁ": 7391,
      "æľ´": 7392,
      "Ġlaun": 7393,
      "éľ¸": 7394,
      "viron": 7395,
      "çļĦåİĨåı²": 7396,
      "æĸ¯åĿ¦": 7397,
      "Ġdoc": 7398,
      "åĲ¦åĪĻ": 7399,
      "å¾Īæľī": 7400,
      "å°ĳæķ°": 7401,
      "åĬ©åĬĽ": 7402,
      "roll": 7403,
      "Ġnovel": 7404,
      "åħ³å¿ĥ": 7405,
      "uter": 7406,
      "Ġmeet": 7407,
      "ç§°åı·": 7408,
      "æĥħå½¢": 7409,
      "Ġformed": 7410,
      "éļıæĹ¶": 7411,
      "åĩºåı°": 7412,
      "é¼ł": 7413,
      "çļĦåŁºæľ¬": 7414,
      "ither": 7415,
      "æĹłè®ºæĺ¯": 7416,
      "Ġworking": 7417,
      "å¡ĺ": 7418,
      "æķĪåºĶ": 7419,
      "æĪĳä»¬åľ¨": 7420,
      "çļĦæķħäºĭ": 7421,
      "çĶ¨åĵģ": 7422,
      "æĹ¥æĬ¥": 7423,
      "è¡ĮæĺŁ": 7424,
      "ĠGold": 7425,
      "ĠBay": 7426,
      "1996": 7427,
      "çĻ½çĻľé£İçļĦ": 7428,
      "åĲīæŀĹ": 7429,
      "Ġtrack": 7430,
      "éĢ»": 7431,
      "Ġadminist": 7432,
      "é¢ĸ": 7433,
      "ship": 7434,
      "æ°ĳéĹ´": 7435,
      "è¿ĺèĥ½": 7436,
      "è¾¾æĪĲ": 7437,
      "ç´§å¼ł": 7438,
      "Ġshould": 7439,
      "æµ´": 7440,
      "Ġrul": 7441,
      "Ġ1996": 7442,
      "ictor": 7443,
      "éĺŁçļĦ": 7444,
      "Ġgradu": 7445,
      "çİ°éĩĳ": 7446,
      "å¹´èĩ³": 7447,
      "ĠCommun": 7448,
      "çĶ¨äºº": 7449,
      "ĠDepartment": 7450,
      "Ġproduct": 7451,
      "ĠSim": 7452,
      "ä¹Łæ²¡æľī": 7453,
      "èĪªå¤©": 7454,
      "æ°Ķè±¡": 7455,
      "èº«ä¸Ĭ": 7456,
      "Ġlanguage": 7457,
      "ecutive": 7458,
      "ailed": 7459,
      "ender": 7460,
      "ĠOlympics": 7461,
      "å½ĵå¤©": 7462,
      "è¿Ĳä½ľ": 7463,
      "çľĭæĿ¥": 7464,
      "ĠWestern": 7465,
      "Ġexample": 7466,
      "åĲĮå¿Ĺ": 7467,
      "æĬĽ": 7468,
      "æĸ¹çļĦ": 7469,
      "isted": 7470,
      "çĤĴ": 7471,
      "åĽ½å®¶çļĦ": 7472,
      "æĶ¯éĥ¨": 7473,
      "lear": 7474,
      "çĻ½èī²": 7475,
      "hi": 7476,
      "æľ¬åľ°": 7477,
      "play": 7478,
      "åīįçļĦ": 7479,
      "ĠGreat": 7480,
      "AI": 7481,
      "æĹ¥åŃĲ": 7482,
      "AM": 7483,
      "çŁ©": 7484,
      "éħįå¤ĩ": 7485,
      "éķ¿æĹ¶éĹ´": 7486,
      "Ġweek": 7487,
      "800": 7488,
      "åĩºè¡Į": 7489,
      "ano": 7490,
      "çİ°ä»£åĮĸ": 7491,
      "åĽłèĢĮ": 7492,
      "åŃĿ": 7493,
      "äº§èĥ½": 7494,
      "åī§æĥħ": 7495,
      "ä¸»è§Ĵ": 7496,
      "çĭ¬çī¹çļĦ": 7497,
      "Ġmaking": 7498,
      "åİŁæĿ¥": 7499,
      "Ġbuildings": 7500,
      "ç©·": 7501,
      "æĺ¯åĽłä¸º": 7502,
      "çĥŃæĥħ": 7503,
      "go": 7504,
      "åĽĬ": 7505,
      "erc": 7506,
      "è¾Ĳå°Ħ": 7507,
      "3000": 7508,
      "èĥģ": 7509,
      "azine": 7510,
      "thlet": 7511,
      "åĢºåĪ¸": 7512,
      "æįŁå®³": 7513,
      "åľ¨ç¾İåĽ½": 7514,
      "ume": 7515,
      "åĽ¾ä¹¦é¦Ĩ": 7516,
      "åģľè½¦": 7517,
      "Ġindepend": 7518,
      "Ġothers": 7519,
      "ĠScott": 7520,
      "åĩºæĿ¥çļĦ": 7521,
      "Ġoffice": 7522,
      "åĴĮæľįåĬ¡": 7523,
      "è´§çī©": 7524,
      "ä¸įå¥½": 7525,
      "å¤±è´¥": 7526,
      "åĽŀçŃĶ": 7527,
      "ria": 7528,
      "åį°è±¡": 7529,
      "07": 7530,
      "Ġindividual": 7531,
      "è¯¾åłĤ": 7532,
      "ederal": 7533,
      "æľĢæĹ©": 7534,
      "Ġ1970": 7535,
      "èģĶéĤ¦": 7536,
      "äºĭå®ŀä¸Ĭ": 7537,
      "é¹¿": 7538,
      "æľīä»Ģä¹Ī": 7539,
      "ertain": 7540,
      "onn": 7541,
      "ĠCharles": 7542,
      "æ¶Į": 7543,
      "Ġmot": 7544,
      "èĲ¥éĢł": 7545,
      "ä¸§": 7546,
      "asc": 7547,
      "çļĦåŃ¦çĶŁ": 7548,
      "éĢļçĶ¨": 7549,
      "é¢ĩ": 7550,
      "å¸ħ": 7551,
      "ĠYear": 7552,
      "Äģ": 7553,
      "ä¸İæŃ¤": 7554,
      "ĠCong": 7555,
      "å®ĥæĺ¯": 7556,
      "çļĦä¿¡æģ¯": 7557,
      "æ³Ħ": 7558,
      "Ġtog": 7559,
      "åįģåħ«": 7560,
      "ç»ĵå©ļ": 7561,
      "Ed": 7562,
      "yd": 7563,
      "ĠMinister": 7564,
      "å°ļæľª": 7565,
      "Ġmedal": 7566,
      "å§»": 7567,
      "æ»©": 7568,
      "æĿĳæ°ĳ": 7569,
      "âĢķ": 7570,
      "Ġdoes": 7571,
      "Ġfund": 7572,
      "reland": 7573,
      "06": 7574,
      "èįĴ": 7575,
      "ports": 7576,
      "board": 7577,
      "åħ¶æ¬¡": 7578,
      "ç¡¬ä»¶": 7579,
      "Ġlive": 7580,
      "ĠLeg": 7581,
      "Ġlo": 7582,
      "çĶµè§Ĩåı°": 7583,
      "epar": 7584,
      "gar": 7585,
      "ĠGreen": 7586,
      "03": 7587,
      "Ġcast": 7588,
      "è§Ĥçľĭ": 7589,
      "å®ª": 7590,
      "æĪªæŃ¢": 7591,
      "éĴ¢ç®¡": 7592,
      "æĸ°åħ´": 7593,
      "ĠChristian": 7594,
      "ethod": 7595,
      "èĢĮä¸įæĺ¯": 7596,
      "ä¿®å¤į": 7597,
      "acing": 7598,
      "Ġtogether": 7599,
      "çĶ±æŃ¤": 7600,
      "æĦıå¤ĸ": 7601,
      "çĪĨåıĳ": 7602,
      "å¸ĤæĶ¿åºľ": 7603,
      "ä¼łè¾ĵ": 7604,
      "åı¤ä»£": 7605,
      "Ġ1997": 7606,
      "ç¼ĸçłģ": 7607,
      "oice": 7608,
      "åįĥç±³": 7609,
      "å»ºç«ĭäºĨ": 7610,
      ");": 7611,
      "Ġrecogn": 7612,
      "Eng": 7613,
      "ura": 7614,
      "Ġmodern": 7615,
      "éĤ£éĩĮ": 7616,
      "Ġground": 7617,
      "ä¸»æ¼Ķ": 7618,
      "ensive": 7619,
      "alls": 7620,
      "æĸ¹ä½į": 7621,
      "åı¦ä¸Ģä¸ª": 7622,
      "atives": 7623,
      "ä¹Łåı¯": 7624,
      "Ġmunicip": 7625,
      "çĥĺ": 7626,
      "æĮ¡": 7627,
      "ĠApp": 7628,
      "çĶµè·¯": 7629,
      "å®ĺç½ĳ": 7630,
      "edy": 7631,
      "Ġemploy": 7632,
      "äººç¾¤": 7633,
      "ĠBen": 7634,
      "ä¸´æĹ¶": 7635,
      "åıł": 7636,
      "Ġavail": 7637,
      "AS": 7638,
      "éĶĲ": 7639,
      "Ġbody": 7640,
      "Ġder": 7641,
      "å®Ŀå®Ŀ": 7642,
      "ç¨İåĬ¡": 7643,
      "åľ°éľĩ": 7644,
      "Ġoffer": 7645,
      "å§¿": 7646,
      "è¯¥åħ¬åı¸": 7647,
      "éŃħ": 7648,
      "å¼ºå¤§çļĦ": 7649,
      "å¤§æ°Ķ": 7650,
      "çļĦç®¡çĲĨ": 7651,
      "æĮĩå®ļ": 7652,
      "è´¾": 7653,
      "ä¸įçŁ¥": 7654,
      "æĸľ": 7655,
      "é«ĺéĢŁåħ¬è·¯": 7656,
      "æīįæĺ¯": 7657,
      "04": 7658,
      "Ġanim": 7659,
      "Ġtourn": 7660,
      "eck": 7661,
      "äº¤æį¢": 7662,
      "ä¸Ģä»½": 7663,
      "ĠChinese": 7664,
      "æį®äºĨè§£": 7665,
      "Ġhimself": 7666,
      "uty": 7667,
      "Ġeffect": 7668,
      "å·¥ä½ľä¸Ń": 7669,
      "å¤ļé¡¹": 7670,
      "ĠBo": 7671,
      "çĸ¼": 7672,
      "Wh": 7673,
      "åĽŀåºĶ": 7674,
      "åĨ·åį´": 7675,
      "usical": 7676,
      "äººæ°ĳæ³ķéĻ¢": 7677,
      "Ġdeg": 7678,
      "çļĦç¬¬ä¸Ģ": 7679,
      "éĿŀæ³ķ": 7680,
      "imately": 7681,
      "This": 7682,
      "anded": 7683,
      "åĲķ": 7684,
      "Ġdaughter": 7685,
      "ulated": 7686,
      "äººåĬĽèµĦæºĲ": 7687,
      "ĠKore": 7688,
      "eated": 7689,
      "è¯ģæį®": 7690,
      "æ¾³éĹ¨": 7691,
      "ograph": 7692,
      "èħ°": 7693,
      "éķ¿æ±Ł": 7694,
      "éĺ³å¸Ĥ": 7695,
      "US": 7696,
      "aries": 7697,
      "äºīè®®": 7698,
      "äº§ä¸ļåıĳå±ķ": 7699,
      "ĠTrans": 7700,
      "mb": 7701,
      "æ¿ĢçĥĪ": 7702,
      "çľĭçľĭ": 7703,
      "ams": 7704,
      "çħ®": 7705,
      "æį®æĤī": 7706,
      "ä¾Ŀæīĺ": 7707,
      "ĠGo": 7708,
      "ros": 7709,
      "æ¨¡åĿĹ": 7710,
      "éģµå®Ī": 7711,
      "CD": 7712,
      "ĠVirgin": 7713,
      "èĤĸ": 7714,
      "atory": 7715,
      "iting": 7716,
      "å»¶éķ¿": 7717,
      "äºŃ": 7718,
      "æ´»åĬ¨çļĦ": 7719,
      "ĠUK": 7720,
      "èĥĢ": 7721,
      "å©Ĩ": 7722,
      "èĥ¸": 7723,
      "ential": 7724,
      "unction": 7725,
      "æ°ĳèĲ¥": 7726,
      "å·´é»İ": 7727,
      "æľ¬ç½ĳç«Ļ": 7728,
      "atre": 7729,
      "ä¸ŃåĮ»": 7730,
      "udd": 7731,
      "ä¿ĿåŃĺ": 7732,
      "å»Ĭ": 7733,
      "ç½Ĳ": 7734,
      "è´¢å¯Į": 7735,
      "ä¸ºäºº": 7736,
      "åįĥä¸ĩ": 7737,
      "æķħéļľ": 7738,
      "æ·®": 7739,
      "åĲĪçī©": 7740,
      "åĶ®åĲİ": 7741,
      "çĽ¸åºĶçļĦ": 7742,
      "å¤Ħç½®": 7743,
      "ning": 7744,
      "å¹¶äºİ": 7745,
      "Ġhow": 7746,
      "çļĦçĽ¸åħ³": 7747,
      "æ¯ıæ¬¡": 7748,
      "æĽ´æľī": 7749,
      "é¡µéĿ¢": 7750,
      "åĬ£": 7751,
      "æħ¢æħ¢": 7752,
      "rel": 7753,
      "iff": 7754,
      "å½»åºķ": 7755,
      "Ġcompanies": 7756,
      "èľĤ": 7757,
      "éĢ¾": 7758,
      "çĶ¨æ°´": 7759,
      "æµı": 7760,
      "çģµæ´»": 7761,
      "Ġeast": 7762,
      "æľĪåºķ": 7763,
      "ĠJew": 7764,
      "äºĮçº§": 7765,
      "å·²æĪĲä¸º": 7766,
      "eball": 7767,
      "ĠPat": 7768,
      "çĹħäºº": 7769,
      "Ġviol": 7770,
      "æĺ¯æľī": 7771,
      "ĠLouis": 7772,
      "çļĦä¸Ģéĥ¨åĪĨ": 7773,
      "åŃ©åŃĲçļĦ": 7774,
      "å¹³æĹ¶": 7775,
      "è¡Ķ": 7776,
      "ĠĊĊĊĊ": 7777,
      "Ġacross": 7778,
      "åı·çº¿": 7779,
      "çŁĽ": 7780,
      "æµĵåº¦": 7781,
      "ado": 7782,
      "istry": 7783,
      "Ġschools": 7784,
      "æŃĮæīĭ": 7785,
      "å¯Ĩå°ģ": 7786,
      "å¢ŀåĬłäºĨ": 7787,
      "è§£æĶ¾": 7788,
      "åħ¬æ°ĳ": 7789,
      "ceed": 7790,
      "å¸¸è§ģçļĦ": 7791,
      "åīĬ": 7792,
      "è¿Ļå°±æĺ¯": 7793,
      "åĲĮæŃ¥": 7794,
      "1995": 7795,
      "èį¡": 7796,
      "Ġi": 7797,
      "gress": 7798,
      "æĺ¥èĬĤ": 7799,
      "æĭħä¿Ŀ": 7800,
      "æľ¬ä¹¦": 7801,
      "uation": 7802,
      "æ¯Ķäºļ": 7803,
      "æĴĴ": 7804,
      "æĢİæł·": 7805,
      "5000": 7806,
      "ands": 7807,
      "å¦»åŃĲ": 7808,
      "ĠCarol": 7809,
      "most": 7810,
      "åıĳæĶ¾": 7811,
      "ä¸ºä¸Ģ": 7812,
      "æŀļ": 7813,
      "Ġcampaign": 7814,
      "èĤ¿çĺ¤": 7815,
      "èī³": 7816,
      "åħ³éĹŃ": 7817,
      "é£İæĻ¯": 7818,
      "anted": 7819,
      "çĽĨ": 7820,
      "ä¸ºå®¢æĪ·": 7821,
      "Ġlow": 7822,
      "Ġbecom": 7823,
      "æĪĲäº¤": 7824,
      "For": 7825,
      "çĸ²": 7826,
      "ä½Ĳ": 7827,
      "roy": 7828,
      "ä½ľå®¶": 7829,
      "ĠParis": 7830,
      "Ġrace": 7831,
      "rael": 7832,
      "Ad": 7833,
      "æ±Łèĭıçľģ": 7834,
      "éĢĶå¾Ħ": 7835,
      "éĢĢä¼ĳ": 7836,
      "è¾½å®ģ": 7837,
      "è¹Ī": 7838,
      "ä¸īåįģ": 7839,
      "çĲĨçĶ±": 7840,
      "é¥¼": 7841,
      "stead": 7842,
      "ä¸ºæĤ¨": 7843,
      "å¤ļå¹´çļĦ": 7844,
      "Or": 7845,
      "ä»İä¸ļ": 7846,
      "ä¸ĩå¹³æĸ¹ç±³": 7847,
      "ĠMichael": 7848,
      "ios": 7849,
      "çľģä»½": 7850,
      "ĠWil": 7851,
      "è¿Ľå±ķ": 7852,
      "èĤ©": 7853,
      "æłĭ": 7854,
      "è¯´çļĦ": 7855,
      "ĀĀ": 7856,
      "utes": 7857,
      "çĻ¾å§ĵ": 7858,
      "Ind": 7859,
      "ability": 7860,
      "å¹´åĪĿ": 7861,
      "och": 7862,
      "Ġbelie": 7863,
      "å±Ģéķ¿": 7864,
      "Ġfire": 7865,
      "Ġblack": 7866,
      "eep": 7867,
      "é«ĺåİĭ": 7868,
      "rama": 7869,
      "Ġnever": 7870,
      "æĲŃéħį": 7871,
      "æłĩåĩĨåĮĸ": 7872,
      "Ġlight": 7873,
      "Ġ1995": 7874,
      "errit": 7875,
      "åĵįåºĶ": 7876,
      "çļĦä»·æł¼": 7877,
      "çŃĽ": 7878,
      "Ġstrong": 7879,
      "æĺİçĻ½": 7880,
      "æ¸©æļĸ": 7881,
      "åĲĮåŃ¦ä»¬": 7882,
      "æīĭç»Ń": 7883,
      "å¤§éģĵ": 7884,
      "éĥ¨ä½į": 7885,
      "çŃ¾ç½²": 7886,
      "oviet": 7887,
      "æľºç»Ħ": 7888,
      "æĽĿ": 7889,
      "äººå¤§": 7890,
      "ĠTexas": 7891,
      "Ġide": 7892,
      "æīĢå±ŀ": 7893,
      "åĨįçĶŁ": 7894,
      "02": 7895,
      "ĠFrom": 7896,
      "writ": 7897,
      "ç²¾åĵģ": 7898,
      "éĢıæĺİ": 7899,
      "è§Ĥå¿µ": 7900,
      "å®¡è®¡": 7901,
      "çººç»ĩ": 7902,
      "èĥº": 7903,
      "ä¸Ģæĸ¹éĿ¢": 7904,
      "èĬĤçº¦": 7905,
      "æļĳ": 7906,
      "ola": 7907,
      "åħ¨å¹´": 7908,
      "å®ĹæĹ¨": 7909,
      "çľŁæŃ£çļĦ": 7910,
      "Ġinst": 7911,
      "At": 7912,
      "å¹³å®ī": 7913,
      "ä¹¦æ³ķ": 7914,
      "ä¼¦æķ¦": 7915,
      "çİĩä¸º": 7916,
      "Ġwest": 7917,
      "é¢Ĺç²Ĵ": 7918,
      "æµ·åĨĽ": 7919,
      "emor": 7920,
      "åģļçļĦ": 7921,
      "æ¶µçĽĸ": 7922,
      "èĤª": 7923,
      "Ã¨": 7924,
      "æ§½": 7925,
      "rov": 7926,
      "Ġ31": 7927,
      "Ge": 7928,
      "åħ¬äº¤": 7929,
      "å½Ń": 7930,
      "å¸¸å¸¸": 7931,
      "Ġeight": 7932,
      "æĭ³": 7933,
      "æķ°çļĦ": 7934,
      "Ġfoc": 7935,
      "åıĤåĬłäºĨ": 7936,
      "Ġwinn": 7937,
      "Ġarchitect": 7938,
      "çļĦç²¾ç¥ŀ": 7939,
      "1994": 7940,
      "å®¶å±ħ": 7941,
      "èĦĤèĤª": 7942,
      "vironment": 7943,
      "ricket": 7944,
      "è¾ĥä½İ": 7945,
      "Ġepisode": 7946,
      "å¼ķåħ¥": 7947,
      "åī¯ä¸»ä»»": 7948,
      "Ġpos": 7949,
      "Ġfree": 7950,
      "æľĢå¤ļ": 7951,
      "Ġradio": 7952,
      "Ġplaying": 7953,
      "time": 7954,
      "Ġartists": 7955,
      "æĬĬæı¡": 7956,
      "æİĪäºĪ": 7957,
      "å¯¹åħ¶": 7958,
      "éĤĵ": 7959,
      "äººåĴĮ": 7960,
      "é¸¿": 7961,
      "é¹ı": 7962,
      "Ġperformed": 7963,
      "ä¾ł": 7964,
      "ä¼ĳæģ¯": 7965,
      "æ¡¶": 7966,
      "åħ¬åĬ¡": 7967,
      "æĵħ": 7968,
      "indows": 7969,
      "ä¸Ģçº¿": 7970,
      "è®°è½½": 7971,
      "å¤ĸè§Ĥ": 7972,
      "éĴĻ": 7973,
      "gy": 7974,
      "èµ·äºĨ": 7975,
      "Ġqual": 7976,
      "æıĲåĪ°": 7977,
      "æĶ¶èĹı": 7978,
      "west": 7979,
      "Ġpaint": 7980,
      "airs": 7981,
      "éĩįéĩı": 7982,
      "å°Ĭéĩį": 7983,
      "æ¨¡æĭŁ": 7984,
      "MS": 7985,
      "ĠDemocr": 7986,
      "çħ§æĺİ": 7987,
      "èĻļæĭŁ": 7988,
      "ĠCatholic": 7989,
      "æĽ´æį¢": 7990,
      "ked": 7991,
      "æłª": 7992,
      "å¼ıçļĦ": 7993,
      "æľŁåĪĬ": 7994,
      "Le": 7995,
      "Ġsepar": 7996,
      "éģ£": 7997,
      "ä¸ļåĨħ": 7998,
      "bour": 7999,
      "åºŀ": 8000,
      "ä½ĵåĪ¶": 8001,
      "Ġ1992": 8002,
      "Ġassoci": 8003,
      "Ġ1994": 8004,
      "embly": 8005,
      "Ġdev": 8006,
      "ĠPlay": 8007,
      "å¼Ģè®¾": 8008,
      "åįģä¸Ģ": 8009,
      "æĺ¯å¯¹": 8010,
      "ä¸ĭåİ»": 8011,
      "æ³Ĭ": 8012,
      "sis": 8013,
      "é¡¾éĹ®": 8014,
      "Ġcour": 8015,
      "åĪĽç«ĭ": 8016,
      "ç¬¬ä¸ĥ": 8017,
      "æĥ³è±¡": 8018,
      "ä¸įäºĨ": 8019,
      "éĹ¹": 8020,
      "serv": 8021,
      "Ġrelig": 8022,
      "ä»ĬæĹ¥": 8023,
      "åĩºåİ»": 8024,
      "è¢«åĳĬ": 8025,
      "ç»Īç«¯": 8026,
      "é©¬æĿ¥": 8027,
      "æ·ĭ": 8028,
      "å¥ĭæĸĹ": 8029,
      "ibrary": 8030,
      "ä¸ĵç§ĳ": 8031,
      "aval": 8032,
      "æĽ¿ä»£": 8033,
      "å°ıåĮº": 8034,
      "å¸ĤæĶ¿": 8035,
      "éĻ¶çĵ·": 8036,
      "çļĦçİ¯å¢ĥ": 8037,
      "Ġcross": 8038,
      "Ġfight": 8039,
      "å®ĮæĪĲäºĨ": 8040,
      "æĮģæľī": 8041,
      "tar": 8042,
      "è¯¾é¢ĺ": 8043,
      "ought": 8044,
      "å®ŀçĶ¨": 8045,
      "ift": 8046,
      "imate": 8047,
      "åłµ": 8048,
      "Ġavailable": 8049,
      "æĻºèĥ½åĮĸ": 8050,
      "æľ¬æĸĩæĳĺè¦ģ": 8051,
      "æħķ": 8052,
      "Ġsuccessful": 8053,
      "utch": 8054,
      "Ġhous": 8055,
      "çŃīå¾ħ": 8056,
      "åıĻ": 8057,
      "å½¢æĢģ": 8058,
      "za": 8059,
      "ä¸ĵé¢ĺ": 8060,
      "Ġinformation": 8061,
      "åŁºçĿ£": 8062,
      "ĠPet": 8063,
      "å²³": 8064,
      "æĸ°åįİ": 8065,
      "å¸¦æĿ¥äºĨ": 8066,
      "åľ°è´¨": 8067,
      "ww": 8068,
      "æĽ´å¥½åľ°": 8069,
      "æĹ¥çĽĬ": 8070,
      "ece": 8071,
      "å¨ģèĥģ": 8072,
      "è§Ħå¾ĭ": 8073,
      "åĽŃæŀĹ": 8074,
      "oms": 8075,
      "ĠDan": 8076,
      "çĥ¤": 8077,
      "æĹ¨åľ¨": 8078,
      "æĶ¶èİ·": 8079,
      "æĭĮ": 8080,
      "Ġ#": 8081,
      "èµ·åĪ°": 8082,
      "æ±ģ": 8083,
      "Ġtra": 8084,
      "åŃ©åŃĲä»¬": 8085,
      "å»¶ä¼¸": 8086,
      "å¾Īå®¹æĺĵ": 8087,
      "å©ļå§»": 8088,
      "çħĮ": 8089,
      "æħ°": 8090,
      "åıĳè¾¾": 8091,
      "ees": 8092,
      "ĠKh": 8093,
      "Ġcontract": 8094,
      "åħħçĶµ": 8095,
      "åĪĿæŃ¥": 8096,
      "aps": 8097,
      "æŁ¯": 8098,
      "chie": 8099,
      "åħ¬ç¤º": 8100,
      "iding": 8101,
      "ĠDay": 8102,
      "ä¸īåĪĨ": 8103,
      "å¹´åľ¨": 8104,
      "âĹ": 8105,
      "æ°´åĪ©": 8106,
      "ĠSur": 8107,
      "å¤ªå¹³": 8108,
      "çŃĸåĪĴ": 8109,
      "ĠBill": 8110,
      "ä¸įå¤Ł": 8111,
      "MP": 8112,
      "ids": 8113,
      "éļĶç¦»": 8114,
      "ä¸įä½Ĩ": 8115,
      "åĵªéĩĮ": 8116,
      "ĠWomen": 8117,
      "ä¸ĬéĿ¢": 8118,
      "head": 8119,
      "ä¸Ī": 8120,
      "ï¼ĳ": 8121,
      "å·´è¥¿": 8122,
      "Ġ1960": 8123,
      "æľµ": 8124,
      "Ġstations": 8125,
      "ĠInter": 8126,
      "Ð°": 8127,
      "å®¹éĩı": 8128,
      "åĩºçİ°åľ¨": 8129,
      "ä¸ĩç¾İåħĥ": 8130,
      "ishop": 8131,
      "ç»ĻäºĨ": 8132,
      "åŃĲåħ¬åı¸": 8133,
      "æ´»åĬĽ": 8134,
      "åĢºåĬ¡": 8135,
      "Ġalthough": 8136,
      "è¿Ļéĥ¨": 8137,
      "Ġbooks": 8138,
      "ways": 8139,
      "arr": 8140,
      "åħ¥éĢī": 8141,
      "èŃ¦å¯Ł": 8142,
      "Ġstage": 8143,
      "ç²¤": 8144,
      "åĽ¢ç»ĵ": 8145,
      "è´¢ç»ı": 8146,
      "ridge": 8147,
      "è®¢åįķ": 8148,
      "çº¦ä¸º": 8149,
      "arch": 8150,
      "è¡Ģæ¶²": 8151,
      "Ġmaterial": 8152,
      "razil": 8153,
      "æľīåĵªäºĽ": 8154,
      "Ġkilled": 8155,
      "ĠTor": 8156,
      "æ¯ıæĹ¥": 8157,
      "å°ıåŀĭ": 8158,
      "Ġgave": 8159,
      "ĠSmith": 8160,
      "çħ¤çĤŃ": 8161,
      "èĦ±è´«": 8162,
      "çļĦå®īåħ¨": 8163,
      "åīįæĻ¯": 8164,
      "elling": 8165,
      "ĠFrank": 8166,
      "åłª": 8167,
      "é¢ĳéģĵ": 8168,
      "1980": 8169,
      "cle": 8170,
      "è¶ħè¶Ĭ": 8171,
      "ĠSant": 8172,
      "Ġinstr": 8173,
      "æī¹è¯Ħ": 8174,
      ",\"": 8175,
      "Rec": 8176,
      "EC": 8177,
      "Ġaway": 8178,
      "APP": 8179,
      "æĹ¬": 8180,
      "éĺ¿æĭī": 8181,
      "oma": 8182,
      "ware": 8183,
      "æīĵåĩ»": 8184,
      "ĠâĢł": 8185,
      "Ġpolitician": 8186,
      "ao": 8187,
      "äººæĸĩ": 8188,
      "æłĳç«ĭ": 8189,
      "éļ§": 8190,
      "åģ·": 8191,
      "ĠSpanish": 8192,
      "åĨ¬åŃ£": 8193,
      "çĥŃæ°´": 8194,
      "èĮĤ": 8195,
      "ource": 8196,
      "è¿Ļä½į": 8197,
      "çĭ±": 8198,
      "éĩįå¤į": 8199,
      "å·¥äºº": 8200,
      "åº¦åģĩ": 8201,
      "è¯´æ³ķ": 8202,
      "ockey": 8203,
      "Ġperformance": 8204,
      "urity": 8205,
      "æĿĲè´¨": 8206,
      "Ġstudy": 8207,
      "æĴŃæĶ¾": 8208,
      "è¯·æ±Ĥ": 8209,
      "Ġgoal": 8210,
      "æĶ¹ä¸º": 8211,
      "éĻĨç»Ń": 8212,
      "å¤§è¿ŀ": 8213,
      "çº³ç¨İ": 8214,
      "ĠTo": 8215,
      "ĠCamp": 8216,
      "æĬ«éľ²": 8217,
      "ems": 8218,
      "èĪŀè¹Ī": 8219,
      "èīĩ": 8220,
      "æĤ£èĢħçļĦ": 8221,
      "è®©ä½ł": 8222,
      "igned": 8223,
      "Ġtaken": 8224,
      "åģļæ³ķ": 8225,
      "iation": 8226,
      "çİ°åľ¨çļĦ": 8227,
      "å¾Ĺä»¥": 8228,
      "åıĳå°Ħ": 8229,
      "Ġcost": 8230,
      "å¸Ĥå§Ķ": 8231,
      "Ġmonths": 8232,
      "è½¦çļĦ": 8233,
      "overnor": 8234,
      "æĻ®åıĬ": 8235,
      "rest": 8236,
      "ä¸İæŃ¤åĲĮæĹ¶": 8237,
      "Ġjournal": 8238,
      "1993": 8239,
      "è¯µ": 8240,
      "æĪĳæĥ³": 8241,
      "èĭ¯": 8242,
      "Ġcirc": 8243,
      "è¯»èĢħ": 8244,
      "éģĹäº§": 8245,
      "æī©å±ķ": 8246,
      "çĶŁå¹³": 8247,
      "ä¹¡éķĩ": 8248,
      "Ġconstruction": 8249,
      "èŀįåħ¥": 8250,
      "ç¾İé£Ł": 8251,
      "Ġsit": 8252,
      "è¥¿æĸ¹": 8253,
      "kr": 8254,
      "Ġacqu": 8255,
      "Ġfollowed": 8256,
      "çļĦåħ³éĶ®": 8257,
      "å¹½": 8258,
      "æ³ª": 8259,
      "æĮĸæİĺ": 8260,
      "ificant": 8261,
      "ET": 8262,
      "å¦Ĩ": 8263,
      "åħĪè¿ĽçļĦ": 8264,
      "æĮº": 8265,
      "æľĪçļĦ": 8266,
      "bl": 8267,
      "åĽŀå½Ĵ": 8268,
      "éĢĿ": 8269,
      "æ³Į": 8270,
      "åıĳè¨Ģ": 8271,
      "ĠRichard": 8272,
      "ä¸ºæŃ¤": 8273,
      "èµĦåĬ©": 8274,
      "åħ¥åı£": 8275,
      "1992": 8276,
      "å¹´éĹ´": 8277,
      "unk": 8278,
      "ĠDirect": 8279,
      "Ġra": 8280,
      "æıĲç¤º": 8281,
      "è¯ĦéĢī": 8282,
      "æ¶ĪéĻ¤": 8283,
      "èĢĮæĪĲ": 8284,
      "ilities": 8285,
      "ĠPeter": 8286,
      "ä¾¿æĺ¯": 8287,
      "æµıè§Ī": 8288,
      "çĥĤ": 8289,
      "ä¹Łå°±": 8290,
      "è®¾å®ļ": 8291,
      "ç®ĢåįķçļĦ": 8292,
      "åħīä¼ı": 8293,
      "Ġassist": 8294,
      "Ġincludes": 8295,
      "èĳĹåĲįçļĦ": 8296,
      "ä¸ĭè¾ĸ": 8297,
      "ES": 8298,
      "æ°´çļĦ": 8299,
      "åĨĪ": 8300,
      "ä¿¡ä»»": 8301,
      "andid": 8302,
      "Ġagre": 8303,
      "ged": 8304,
      "å¹¶å°Ĩ": 8305,
      "éĥ½å¸Ĥ": 8306,
      "æıĲé«ĺäºĨ": 8307,
      "ys": 8308,
      "åįģäºĶ": 8309,
      "åİļçļĦ": 8310,
      "åħ¬å¹³": 8311,
      "å®¶éĩĮ": 8312,
      "åĿĩåĮĢ": 8313,
      "æīŃ": 8314,
      "å¤§å¤ļ": 8315,
      "ĠMel": 8316,
      "ä¸ºæŃ¢": 8317,
      "Ġtour": 8318,
      "å¤ªéĺ³èĥ½": 8319,
      "æ¶Īæ¯Ĵ": 8320,
      "ç®¡è¾ĸ": 8321,
      "åĲĪä½ľä¼Ļä¼´": 8322,
      "incip": 8323,
      "Ġdesigned": 8324,
      "å¼Ģå·¥": 8325,
      "ranch": 8326,
      "Ġaircraft": 8327,
      "çī¹å®ļ": 8328,
      "erous": 8329,
      "Bl": 8330,
      "aker": 8331,
      "ita": 8332,
      "è¡¥åĬ©": 8333,
      "urp": 8334,
      "Ġboard": 8335,
      "hood": 8336,
      "çº¦ç¿°": 8337,
      "æ¿ĢåĬ±": 8338,
      "Ġyou": 8339,
      "æķ°åŃĹåĮĸ": 8340,
      "å®Ļ": 8341,
      "ĠChampionships": 8342,
      "yr": 8343,
      "enced": 8344,
      "åĨ¯": 8345,
      "æĲŃå»º": 8346,
      "Ġlab": 8347,
      "Ġfinished": 8348,
      "éħ¶": 8349,
      "æĸ°åĨłèĤºçĤİ": 8350,
      "cer": 8351,
      "å¤ĸéĥ¨": 8352,
      "istan": 8353,
      "çĽ¸ä¼¼": 8354,
      "ä½ĵæ£Ģ": 8355,
      "Ġ1993": 8356,
      "çŁĽçĽ¾": 8357,
      "åŀ«": 8358,
      "ĠHam": 8359,
      "åľºçļĦ": 8360,
      "æ¶ĪèĢĹ": 8361,
      "èĳ¬": 8362,
      "Ġattempt": 8363,
      "éĢīçĶ¨": 8364,
      "éķ¿æ²Ļ": 8365,
      "ĠHenry": 8366,
      "æĢĴ": 8367,
      "æ¤Ĵ": 8368,
      "ç¼ĵè§£": 8369,
      "æ³ķäºº": 8370,
      "Ġshows": 8371,
      "åıĤæķ°": 8372,
      "ĠIreland": 8373,
      "éĿŀæ´²": 8374,
      "Ġawarded": 8375,
      "å°ĨåĨĽ": 8376,
      "å¼Ħ": 8377,
      "urt": 8378,
      "ĠDes": 8379,
      "å»ºè®¾çļĦ": 8380,
      "Early": 8381,
      "ç¢§": 8382,
      "ĠCons": 8383,
      "æĴŃåĩº": 8384,
      "æĬļ": 8385,
      "Ġ1991": 8386,
      "Ġfeatures": 8387,
      "ä¸¥éĩįçļĦ": 8388,
      "å¼ºåĪ¶": 8389,
      "Ġmix": 8390,
      "å¯¹æ¯Ķ": 8391,
      "ä¸Ģä½ĵåĮĸ": 8392,
      "è¯»ä¹¦": 8393,
      "ĠWin": 8394,
      "ON": 8395,
      "è´Ŀå°Ķ": 8396,
      "è¾ħå¯¼": 8397,
      "åµ": 8398,
      "æ¹ĺ": 8399,
      "Ġcivil": 8400,
      "è®¾è®¡çļĦ": 8401,
      "çŃ¾çº¦": 8402,
      "åĤħ": 8403,
      "å¸Ĥåľºä¸Ĭ": 8404,
      "æķ´æĶ¹": 8405,
      "çĶµä¿¡": 8406,
      "æµĻæ±Łçľģ": 8407,
      "Ġplan": 8408,
      "åĲĮæĹ¶ä¹Ł": 8409,
      "Ġregular": 8410,
      "Ġput": 8411,
      "æ¶ĪåĮĸ": 8412,
      "Ġsil": 8413,
      "å±ĤéĿ¢": 8414,
      "ç£·": 8415,
      "Ġ40": 8416,
      "Ð¾": 8417,
      "å¯¨": 8418,
      "ç§»æ°ĳ": 8419,
      "èĲ½åľ°": 8420,
      "æŀ¢": 8421,
      "Ġsound": 8422,
      "ped": 8423,
      "ä¾ĿéĿł": 8424,
      "æľīçĤ¹": 8425,
      "vert": 8426,
      "Ġmust": 8427,
      "Ġhealth": 8428,
      "ä¾Ŀçħ§": 8429,
      "Ġfront": 8430,
      "å®ŀåľ¨": 8431,
      "å¸ĿåĽ½": 8432,
      "ĠForce": 8433,
      "Ġill": 8434,
      "èĻ¹": 8435,
      "Ġrank": 8436,
      "æıĲä¾ĽçļĦ": 8437,
      "è¯¸å¤ļ": 8438,
      "æ¬ł": 8439,
      "éħ¬": 8440,
      "ç»µ": 8441,
      "Ġcompos": 8442,
      "inals": 8443,
      "çº¿ä¸ĭ": 8444,
      "nel": 8445,
      "Ġforces": 8446,
      "éļĲæĤ£": 8447,
      "ç»§æī¿": 8448,
      "å½±åĥı": 8449,
      "icago": 8450,
      "ä½ıå®¿": 8451,
      "æ¯ķç«Ł": 8452,
      "æĢ»å±Ģ": 8453,
      "åı¯è¾¾": 8454,
      "âĨ": 8455,
      "ĠVictor": 8456,
      "éŁµ": 8457,
      "Ġpress": 8458,
      "çĶµç¼Ĩ": 8459,
      "åıĳèµ·": 8460,
      "åĵ²åŃ¦": 8461,
      "åĽ½å®¶åĴĮ": 8462,
      "ien": 8463,
      "æ£ļ": 8464,
      "çļĦæľºä¼ļ": 8465,
      "ç§ĳåŃ¦å®¶": 8466,
      "Ġplaces": 8467,
      "äº§åĵģè´¨éĩı": 8468,
      "æ¼«çĶ»": 8469,
      "Ġaccess": 8470,
      "ä¼łæĦŁåĻ¨": 8471,
      "ç«ŀæĬĢ": 8472,
      "æĬĢå·§": 8473,
      "Ġartic": 8474,
      "Ġmarket": 8475,
      "çŃĴ": 8476,
      "ĠFr": 8477,
      "å»ºäºİ": 8478,
      "åħĨ": 8479,
      "Ġrock": 8480,
      "ĠLos": 8481,
      "æĹłçĸĳ": 8482,
      "ĠEmp": 8483,
      "æ³ķå®ļ": 8484,
      "çĦĬæİ¥": 8485,
      "aching": 8486,
      "çĽ¸ç»ĵåĲĪ": 8487,
      "ä¸įéľĢè¦ģ": 8488,
      "ĠSwed": 8489,
      "Ġdou": 8490,
      "ç¤¾ä¼ļä¸»ä¹ī": 8491,
      "Ġestablishments": 8492,
      "ĠGeorg": 8493,
      "è¯Ħä¸º": 8494,
      "æĸĩåĮĸçļĦ": 8495,
      "å¾Īå°ĳ": 8496,
      "merc": 8497,
      "çķĻä¸ĭ": 8498,
      "ä½Ļäºº": 8499,
      "ISO": 8500,
      "æ±°": 8501,
      "çļĦé¦ĸ": 8502,
      "CP": 8503,
      "App": 8504,
      "ĠTom": 8505,
      "AN": 8506,
      "æİ¢è®¨": 8507,
      "æİ¥å¾ħ": 8508,
      "åĲİæľŁ": 8509,
      "æľīåĬ©äºİ": 8510,
      "Ã³n": 8511,
      "æĢĿè·¯": 8512,
      "æĶ»åĿļ": 8513,
      "çļĦåħ³ç³»": 8514,
      "æł¼å±Ģ": 8515,
      "æĽ°": 8516,
      "atin": 8517,
      "åĽŀå¤į": 8518,
      "ye": 8519,
      "ĠDel": 8520,
      "èı©": 8521,
      "aying": 8522,
      "è½´æī¿": 8523,
      "æ¤ħ": 8524,
      "Ġtest": 8525,
      "ĠCro": 8526,
      "iÄ": 8527,
      "ä¼ª": 8528,
      "ector": 8529,
      "book": 8530,
      "æĺ¯éĿŀå¸¸": 8531,
      "æĬĳåĪ¶": 8532,
      "hest": 8533,
      "Ġoriginally": 8534,
      "Ġcurrent": 8535,
      "ĠBut": 8536,
      "èŁ": 8537,
      "æľĢä¸º": 8538,
      "æĽ´é«ĺ": 8539,
      "æ£Ģå¯Ł": 8540,
      "è¡į": 8541,
      "é«ĺéĵģ": 8542,
      "å©´åĦ¿": 8543,
      "çĤ¹åĩ»": 8544,
      "å¾®åįļ": 8545,
      "åıĸä»£": 8546,
      "Ġremained": 8547,
      "Ġseven": 8548,
      "âĶ": 8549,
      "Ġmodel": 8550,
      "è¿Ľç¨ĭ": 8551,
      "åģ¥èº«": 8552,
      "Ġdam": 8553,
      "éĤ£æł·": 8554,
      "æ°´æŀľ": 8555,
      "Ġsignificant": 8556,
      "å®´": 8557,
      "read": 8558,
      "Åį": 8559,
      "ĠOl": 8560,
      "å¸¸è§Ħ": 8561,
      "åħĭåħ°": 8562,
      "face": 8563,
      "çļĦåºĶçĶ¨": 8564,
      "Ġonce": 8565,
      "kn": 8566,
      "å¿«éĢĴ": 8567,
      "åĪļåĪļ": 8568,
      "å¯¹åºĶ": 8569,
      "åįķåħĥ": 8570,
      "ĠHistory": 8571,
      "è¡ĮæĶ¿åĮº": 8572,
      "è¡Ģåİĭ": 8573,
      "æĻ¯çĤ¹": 8574,
      "uture": 8575,
      "æĻĴ": 8576,
      "Ġsinger": 8577,
      "æĪĲå¹´": 8578,
      "ä¾Ŀèµĸ": 8579,
      "ĠProvince": 8580,
      "èĭıå·ŀ": 8581,
      "åĬŀäºĭ": 8582,
      "Ġtournament": 8583,
      "è¿Ļç±»": 8584,
      "elop": 8585,
      "è½¬è®©": 8586,
      "iences": 8587,
      "æĥĳ": 8588,
      "èµĶåģ¿": 8589,
      "èĹ¤": 8590,
      "Ġpolice": 8591,
      "å½ĵä»£": 8592,
      "ribution": 8593,
      "æĿ¿åĿĹ": 8594,
      "åĲĦä½į": 8595,
      "Ġfeatured": 8596,
      "ç§ĳåŃ¦éĻ¢": 8597,
      "ä¾¦": 8598,
      "ç®¡çĲĨä½ĵç³»": 8599,
      "igan": 8600,
      "åģ¥åħ¨": 8601,
      "text": 8602,
      "ero": 8603,
      "istics": 8604,
      "çĻ½æĸĳ": 8605,
      "å®ŀæĹ¶": 8606,
      "çĳŁ": 8607,
      "Ġbi": 8608,
      "æł½": 8609,
      "Notes": 8610,
      "åı£ç½©": 8611,
      "ä¿®è®¢": 8612,
      "çĶ¨äººåįķä½į": 8613,
      "æľīåħ³éĥ¨éĹ¨": 8614,
      "åŃ¦åĳĺ": 8615,
      "éķľå¤´": 8616,
      "idents": 8617,
      "fficial": 8618,
      "çĶµåŃĲåķĨåĬ¡": 8619,
      "Ġcountries": 8620,
      "ç²®é£Ł": 8621,
      "æĹłéĻĲ": 8622,
      "ç´§æĢ¥": 8623,
      "æ²³åįĹçľģ": 8624,
      "ĠRob": 8625,
      "è°¢è°¢": 8626,
      "iano": 8627,
      "å½ĵäºĭ": 8628,
      "Ġproble": 8629,
      "ĠDo": 8630,
      "aches": 8631,
      "èģĮåĬ¡": 8632,
      "æĪ¿åŃĲ": 8633,
      "ä¿¡æīĺ": 8634,
      "Ġrights": 8635,
      "Ġtype": 8636,
      "arts": 8637,
      "åĪĽå§ĭ": 8638,
      "çĲ³": 8639,
      "ĠWhite": 8640,
      "æŀ¶æŀĦ": 8641,
      "Ġwid": 8642,
      "erry": 8643,
      "ä¾µçĬ¯": 8644,
      "ulty": 8645,
      "æī¿è®¤": 8646,
      "éĤ®ä»¶": 8647,
      "åįģä¹Ŀ": 8648,
      "TA": 8649,
      "Ġsen": 8650,
      "çĮİ": 8651,
      "åĽ¾åĥı": 8652,
      "List": 8653,
      "åį¸": 8654,
      "çĶµåİĭ": 8655,
      "æ½ĺ": 8656,
      "Ġtraining": 8657,
      "Ġliter": 8658,
      "FL": 8659,
      "ç²¾åº¦": 8660,
      "å¹´å¼Ģå§ĭ": 8661,
      "Ġlargest": 8662,
      "Ġmedia": 8663,
      "æĢ§æł¼": 8664,
      "åĭĺ": 8665,
      "agon": 8666,
      "Ġscored": 8667,
      "Ġaver": 8668,
      "ĠPenn": 8669,
      "éĢ»è¾ĳ": 8670,
      "å¥īçĮ®": 8671,
      "åħħåĪĨåıĳæĮ¥": 8672,
      "åĽĽå·Ŀçľģ": 8673,
      "Ġinj": 8674,
      "annel": 8675,
      "åĬĽåĴĮ": 8676,
      "æ´»è·ĥ": 8677,
      "900": 8678,
      "Ġsugg": 8679,
      "éħ±": 8680,
      "æłĳèĦĤ": 8681,
      "å°Ķæĸ¯": 8682,
      "ugby": 8683,
      "ç«Ļåľ¨": 8684,
      "å¿ĥéĩĮ": 8685,
      "Ġtreat": 8686,
      "ĠMus": 8687,
      "Ġcourt": 8688,
      "åįĵè¶Ĭ": 8689,
      "Ġartist": 8690,
      "ç§ĳæĬĢæľīéĻĲåħ¬åı¸": 8691,
      "å½¢çĬ¶": 8692,
      "éļ§éģĵ": 8693,
      "Ġstri": 8694,
      "«çĹ": 8695,
      "ä¸īæĺ¯": 8696,
      "ĠEv": 8697,
      "äºĴçĽ¸": 8698,
      "ĠArts": 8699,
      "åĪĳäºĭ": 8700,
      "Ġsem": 8701,
      "çļĦä¸ŃåĽ½": 8702,
      "åĨĽéĺŁ": 8703,
      "å¸¸åĬ¡": 8704,
      "çĩĥæĸĻ": 8705,
      "amily": 8706,
      "å±±åĮº": 8707,
      "å¹²åĩĢ": 8708,
      "åħ±è®¡": 8709,
      "ä¹Ļçĥ¯": 8710,
      "ĠHill": 8711,
      "æĪĳä»¬å°Ĩ": 8712,
      "ription": 8713,
      "æĸ°çĶŁ": 8714,
      "atal": 8715,
      "ĠRock": 8716,
      "è¿ĺå°Ĩ": 8717,
      "èĬ±åĽŃ": 8718,
      "çĶĺèĤĥ": 8719,
      "åĽŀå®¶": 8720,
      "Ġleading": 8721,
      "ĠTechn": 8722,
      "é¼İ": 8723,
      "å¥³åŃ©": 8724,
      "å®¶çĶµ": 8725,
      "é¾Ļå¤´": 8726,
      "èģª": 8727,
      "Ġearl": 8728,
      "ä»½é¢Ŀ": 8729,
      "éģĹä¼ł": 8730,
      "ctor": 8731,
      "å½¼æŃ¤": 8732,
      "aught": 8733,
      "ĠMass": 8734,
      "æ¿Ģåıĳ": 8735,
      "é©°": 8736,
      "æĿī": 8737,
      "ĠKn": 8738,
      "æľªèĥ½": 8739,
      "ä¸įåľ¨": 8740,
      "Ġthroughout": 8741,
      "çľĭèµ·æĿ¥": 8742,
      "æ¡Ĩæŀ¶": 8743,
      "icy": 8744,
      "åŃ¦åĲį": 8745,
      "éħįä»¶": 8746,
      "åĽŀå¿Ĩ": 8747,
      "éĩĮæĸ¯": 8748,
      "uns": 8749,
      "æŃ£è§Ħ": 8750,
      "Ġearn": 8751,
      "Ġjud": 8752,
      "ç»ĵæĿŁåĲİ": 8753,
      "Ġkey": 8754,
      "ta": 8755,
      "ĠCast": 8756,
      "å¾Īé«ĺ": 8757,
      "éĻĢ": 8758,
      "çī©ç§į": 8759,
      "Ġexist": 8760,
      "çļĦè¿ĩç¨ĭä¸Ń": 8761,
      "æĪ¿éĹ´": 8762,
      "icro": 8763,
      "ä¸¢": 8764,
      "è¿Ļé¡¹": 8765,
      "ĠItaly": 8766,
      "è£ķ": 8767,
      "åº·å¤į": 8768,
      "åľºåľ°": 8769,
      "çĽ²": 8770,
      "è°Ĭ": 8771,
      "ĠFestival": 8772,
      "sych": 8773,
      "æĿĥå¨ģ": 8774,
      "çĩĥçĥ§": 8775,
      "cher": 8776,
      "ä¸ĭæ»ĳ": 8777,
      "åĪĿæľŁ": 8778,
      "åħ±äº§åħļ": 8779,
      "èĲ¥æĶ¶": 8780,
      "çļĦçĽ®æłĩ": 8781,
      "ĠTurk": 8782,
      "olk": 8783,
      "é¥®æĸĻ": 8784,
      "ç«ĭæ³ķ": 8785,
      "åı¯ä»¥éĢļè¿ĩ": 8786,
      "æīĵçł´": 8787,
      "å±Ī": 8788,
      "éĥĳå·ŀ": 8789,
      "Ġeduc": 8790,
      "ylv": 8791,
      "uke": 8792,
      "å¼Ģå¹ķ": 8793,
      "Ġseen": 8794,
      "ç§ĳæĬĢåĪĽæĸ°": 8795,
      "ĠSecond": 8796,
      "Ġtransl": 8797,
      "iqu": 8798,
      "Ġtransfer": 8799,
      "ĠVirginia": 8800,
      "åı¹": 8801,
      "èĮħ": 8802,
      "åİĺç±³": 8803,
      "åį§": 8804,
      "åĲĦçķĮ": 8805,
      "åıĳéĢģ": 8806,
      "åįģåħŃ": 8807,
      "SS": 8808,
      "ä¸¤æ¬¡": 8809,
      "åıĶ": 8810,
      "èµ°è¿Ľ": 8811,
      "ä»¥å¾Ģ": 8812,
      "åĪĽåĬŀ": 8813,
      "ava": 8814,
      "åįłæį®": 8815,
      "Ġconv": 8816,
      "å¤ļå¹´æĿ¥": 8817,
      "asing": 8818,
      "è®¾è®¡å¸Ī": 8819,
      "çĹħçļĦ": 8820,
      "Ġbasketball": 8821,
      "åı¯åľ¨": 8822,
      "çļĦä¸ľè¥¿": 8823,
      "ĠOrder": 8824,
      "ç§©": 8825,
      "URL": 8826,
      "Ġstated": 8827,
      "æľīåºı": 8828,
      "åħ¨ä¸ĸçķĮ": 8829,
      "Ġfemale": 8830,
      "ä¾Ľç»Ļ": 8831,
      "ä¸¤ä½į": 8832,
      "ãĢģâĢľ": 8833,
      "Ġbo": 8834,
      "ores": 8835,
      "åĩ»è´¥": 8836,
      "Ġrespons": 8837,
      "ç´§å¯Ĩ": 8838,
      "æ¶Īå¤±": 8839,
      "Ġintroduced": 8840,
      "æł¡åĮº": 8841,
      "ĠSqu": 8842,
      "å®ĩå®Ļ": 8843,
      "å·´å£«": 8844,
      "ĠSuper": 8845,
      "çĶŁäº§çº¿": 8846,
      "Ġinvolved": 8847,
      "çĶ³è¯·äºº": 8848,
      "çĶŁæĢģçİ¯å¢ĥ": 8849,
      "ï¼Ĳ": 8850,
      "Ġlisted": 8851,
      "çłĶç©¶ä¸Ńå¿ĥ": 8852,
      "åĿĿ": 8853,
      "çĥŃå¸¦": 8854,
      "é«ĺæĸ°æĬĢæľ¯": 8855,
      "å¤ĦçļĦ": 8856,
      "inct": 8857,
      "Ġtro": 8858,
      "ĠEr": 8859,
      "æ¬£èµı": 8860,
      "åħ¬åı¸åľ¨": 8861,
      "èĪŁ": 8862,
      "John": 8863,
      "ä¸Ĭä¼ł": 8864,
      "å°½å¿«": 8865,
      "å¤§æĪĺ": 8866,
      "æ¬§çĽŁ": 8867,
      "ĠSaint": 8868,
      "lant": 8869,
      "èĳĽ": 8870,
      ";\"": 8871,
      "æīĩ": 8872,
      "ä¸Ńéĥ¨": 8873,
      "ç¬¬ä¸īæĸ¹": 8874,
      "èīºæľ¯å®¶": 8875,
      "çľĭçĿĢ": 8876,
      "åŃ£èĬĤ": 8877,
      "èį·åħ°": 8878,
      "åħ¨æĸ¹ä½į": 8879,
      "å¯¹æİ¥": 8880,
      "åŃ¦æł¡çļĦ": 8881,
      "è¿ĺæ²¡æľī": 8882,
      "Career": 8883,
      ".)": 8884,
      "Ġsubsequ": 8885,
      "çº§çļĦ": 8886,
      "ä¼łåªĴ": 8887,
      "çŁŃæľŁ": 8888,
      "Ġable": 8889,
      "Ġcentral": 8890,
      "åįĹæĸ¹": 8891,
      "çķľ": 8892,
      "onstr": 8893,
      "stant": 8894,
      "ufact": 8895,
      "ĠCommission": 8896,
      "atriate": 8897,
      "lam": 8898,
      "aud": 8899,
      "ãĢķ": 8900,
      "çļĦè¿ĩç¨ĭ": 8901,
      "Ġcompetition": 8902,
      "ãĢĶ": 8903,
      "Ġgold": 8904,
      "æĺŃ": 8905,
      "è¿ĽèĢĮ": 8906,
      "åŁİå¸ĤçļĦ": 8907,
      "éļ¾é¢ĺ": 8908,
      "å¹´èµ·": 8909,
      "åľ¨ä¸Ģ": 8910,
      "åıĹçĲĨ": 8911,
      "æĬķç¥¨": 8912,
      "æ°Ķæ¸©": 8913,
      "Ġsch": 8914,
      "å¦®": 8915,
      "åĴ¸": 8916,
      "éĤ®æĶ¿": 8917,
      "è¿Ļæ¬¾": 8918,
      "English": 8919,
      "Ġcritic": 8920,
      "ube": 8921,
      "æķĳæı´": 8922,
      "åįıä½ľ": 8923,
      "Ġpast": 8924,
      "ç¨ĭåº¦ä¸Ĭ": 8925,
      "æĲºæīĭ": 8926,
      "igr": 8927,
      "Ġ1989": 8928,
      "ĠNavy": 8929,
      "å¥ł": 8930,
      "ç®¡çĲĨçļĦ": 8931,
      "æĴ°": 8932,
      "ua": 8933,
      "Ġentire": 8934,
      "Ġmount": 8935,
      "é¢ĳçİĩ": 8936,
      "éļ¾åº¦": 8937,
      "ato": 8938,
      "éĢļé£İ": 8939,
      "Ġleast": 8940,
      "çĭ®": 8941,
      "æ³°åĽ½": 8942,
      "tain": 8943,
      "ä¸»æķĻ": 8944,
      "åĩºç§Ł": 8945,
      "åĪł": 8946,
      "ä¾ĽåºĶéĵ¾": 8947,
      "åĲĦåĽ½": 8948,
      "å¥¹ä»¬": 8949,
      "åıįå¤į": 8950,
      "ç»ıè´¹": 8951,
      "æĸ°æĹ¶ä»£": 8952,
      "road": 8953,
      "rial": 8954,
      "Ġdiscover": 8955,
      "è®¤çŁ¥": 8956,
      "ä½¿åħ¶": 8957,
      "ä¸įè¶ħè¿ĩ": 8958,
      "èĢģæĿ¿": 8959,
      "ä¿Ŀåħ»": 8960,
      "ä»¥å¤ĸ": 8961,
      "æ¬§åħĥ": 8962,
      "ĠScience": 8963,
      "çļĦéĢīæĭ©": 8964,
      "order": 8965,
      "ç¬¬ä¸ĢæĹ¶éĹ´": 8966,
      "æĸ°å»º": 8967,
      "å¿ħçĦ¶": 8968,
      "å¸ĮèħĬ": 8969,
      "ç³ķ": 8970,
      "Ġwhite": 8971,
      "å·®è·Ŀ": 8972,
      "éĦ": 8973,
      "ĠIsrael": 8974,
      "Ġwriters": 8975,
      "æ°Ł": 8976,
      "æº¢": 8977,
      "ç»ĨèıĮ": 8978,
      "1991": 8979,
      "åİŁå§ĭ": 8980,
      "Ġaud": 8981,
      "ä¸įä¸Ģæł·": 8982,
      "å¾ģæ±Ĥ": 8983,
      "ĠAwards": 8984,
      "Ġadded": 8985,
      "ĠLake": 8986,
      "é¥ŃåºĹ": 8987,
      "acters": 8988,
      "ä¹ĭå¤Ħ": 8989,
      "æ¡¥æ¢ģ": 8990,
      "çļĦè´¨éĩı": 8991,
      "ĠScot": 8992,
      "ç»Ħå»º": 8993,
      "ĠGod": 8994,
      "ĠOff": 8995,
      "å¹´è½»äºº": 8996,
      "Ġstates": 8997,
      "ĠMexico": 8998,
      "çŃĭ": 8999,
      "åİŁåĪĽ": 9000,
      "å¿Į": 9001,
      "Ġeventually": 9002,
      "åĲİç»Ń": 9003,
      "éĺ²çģ«": 9004,
      "Ġ1988": 9005,
      "Ġprivate": 9006,
      "tic": 9007,
      "æĶ¹ç¼ĸ": 9008,
      "ç¬¬äºĮæ¬¡": 9009,
      "Ġreplaced": 9010,
      "å¯¼åĲĳ": 9011,
      "AP": 9012,
      "æľ¬åľŁ": 9013,
      "é¥²": 9014,
      "çĪ½": 9015,
      "Te": 9016,
      "ç¯®çĲĥ": 9017,
      "ask": 9018,
      "åľ°åĽ¾": 9019,
      "ĠAnn": 9020,
      "æķ´æ²»": 9021,
      "æĪ·å¤ĸ": 9022,
      "Ġwriter": 9023,
      "åįľ": 9024,
      "èģļéĽĨ": 9025,
      "Ġbar": 9026,
      "ç»ŁçŃ¹": 9027,
      "æ·ĺæ±°": 9028,
      "èİ·å¥ĸ": 9029,
      "éĺ²æ°´": 9030,
      "åĮºåĿĹ": 9031,
      "éĵŃ": 9032,
      "åıĬä»¥ä¸Ĭ": 9033,
      "åĪĹåħ¥": 9034,
      "çİĦ": 9035,
      "Ġindic": 9036,
      "ca": 9037,
      "çĶ¨æĪ·çļĦ": 9038,
      "è®¸åı¯è¯ģ": 9039,
      "çĨĶ": 9040,
      "æ°®": 9041,
      "Ġrailway": 9042,
      "åĨħå¤ĸ": 9043,
      "ç§ĺå¯Ĩ": 9044,
      "å¥³äºº": 9045,
      "æĶ¯æı´": 9046,
      "enth": 9047,
      "å¤ķ": 9048,
      "ĠMark": 9049,
      "è®²è§£": 9050,
      "Ġresults": 9051,
      "Ġvocals": 9052,
      "Ġ(\"": 9053,
      "æłĩåĩĨçļĦ": 9054,
      "å¤§æ¦Ĥ": 9055,
      "çī©èµĦ": 9056,
      "la": 9057,
      "éĶ»çĤ¼": 9058,
      "æĶĢ": 9059,
      "èĽĭçĻ½è´¨": 9060,
      "çŃĶæ¡Ī": 9061,
      "ĠStr": 9062,
      "ç¨İæĶ¶": 9063,
      "ĠCarl": 9064,
      "çĶµæµģ": 9065,
      "ç§īæī¿": 9066,
      "åĳ³éģĵ": 9067,
      "å»ºæĿĲ": 9068,
      "Ġexpress": 9069,
      "formula": 9070,
      "ette": 9071,
      "ĠPre": 9072,
      "é¦¨": 9073,
      "arian": 9074,
      "æ½ľåĬĽ": 9075,
      "1988": 9076,
      "Ġcollege": 9077,
      "æĭīæĸ¯": 9078,
      "æľŁè´§": 9079,
      "bb": 9080,
      "ĠMil": 9081,
      "çİ°çĬ¶": 9082,
      "ora": 9083,
      "éĢ¢": 9084,
      "FF": 9085,
      "Ġfig": 9086,
      "å®¢æĪ·çļĦ": 9087,
      "ĠParliament": 9088,
      "ĠJust": 9089,
      "æľīåı¯èĥ½": 9090,
      "åĸľçĪ±": 9091,
      "ä¸įå¾Ĺä¸į": 9092,
      "äºīåıĸ": 9093,
      "Ġser": 9094,
      "å¤ªå¤ļ": 9095,
      "ä¸Ĭçº¿": 9096,
      "éĢļæĬ¥": 9097,
      "ĠPan": 9098,
      "æĬĢæľ¯åĴĮ": 9099,
      "ental": 9100,
      "æīĳ": 9101,
      "ä¸Ĭæľī": 9102,
      "Ġpe": 9103,
      "ĠChicago": 9104,
      "retary": 9105,
      "ensus": 9106,
      "ients": 9107,
      "å¤ĩæ¡Ī": 9108,
      "å¤§æ¥¼": 9109,
      "ç½ķ": 9110,
      "ç¿Ķ": 9111,
      "iana": 9112,
      "sel": 9113,
      "mercial": 9114,
      "Ġchange": 9115,
      "Ġfourth": 9116,
      "ĠRussia": 9117,
      "ç½ĳé¡µ": 9118,
      "Ġabove": 9119,
      "Ġran": 9120,
      "æµİåįĹ": 9121,
      "æĿ¡ä»¶çļĦ": 9122,
      "åİĮ": 9123,
      "illa": 9124,
      "Ġeither": 9125,
      "å±ķä¼ļ": 9126,
      "æī®æ¼Ķ": 9127,
      "ĠBrown": 9128,
      "æĸ°é²ľ": 9129,
      "éĤ®ç®±": 9130,
      "å»ºçŃĳéĿ¢ç§¯": 9131,
      "ç¦ıåĪ©": 9132,
      "åľ¨åħ¨åĽ½": 9133,
      "iger": 9134,
      "å¸ĤåĮº": 9135,
      "éĶĢåķĨ": 9136,
      "åŁºéĩĳä¼ļ": 9137,
      "é«ĺå³°": 9138,
      "è´Łæĭħ": 9139,
      "anda": 9140,
      "Ġrange": 9141,
      "ä»ħä»ħ": 9142,
      "éĿ¢åīį": 9143,
      "ĠAngeles": 9144,
      "åºŁæ°Ķ": 9145,
      "Ġsubject": 9146,
      "åĨ²çªģ": 9147,
      "Ġdegree": 9148,
      "Ġcurrently": 9149,
      "ä¸Ĭä¸Ģ": 9150,
      "å¦ĩå¥³": 9151,
      "å½±åĵįåĬĽ": 9152,
      "azz": 9153,
      "èĬĤçľģ": 9154,
      "Ġcandid": 9155,
      "Ġdocument": 9156,
      "åĮł": 9157,
      "åħ¬å¯ĵ": 9158,
      "åŃĲå¥³": 9159,
      "ä»¥ä¾¿": 9160,
      "porary": 9161,
      "ĠSoviet": 9162,
      "çļĦåİŁåĪĻ": 9163,
      "éħ¿": 9164,
      "è¾ĥé«ĺçļĦ": 9165,
      "åħ¶ä½Ļ": 9166,
      "Ġcop": 9167,
      "èĲ§": 9168,
      "ĠHistoric": 9169,
      "iro": 9170,
      "ç»¿åĮĸ": 9171,
      "çŃīäºº": 9172,
      "Ġlearn": 9173,
      "æĽ´å¤§çļĦ": 9174,
      "å¸¦æľī": 9175,
      "èģĶåĲĪåĽ½": 9176,
      "è½¦éĹ´": 9177,
      "Ġactress": 9178,
      "ç®Ĺæ³ķ": 9179,
      "ç§©åºı": 9180,
      "ç°": 9181,
      "edic": 9182,
      "æŁ¥çľĭ": 9183,
      "è¦ģç´ł": 9184,
      "çļĩå¸Ŀ": 9185,
      "è¿ĶåĽŀ": 9186,
      "left": 9187,
      "çļĦæķĪæŀľ": 9188,
      "æĪĲæķĪ": 9189,
      "æĺ¾å¾Ĺ": 9190,
      "åĨħå¿ĥ": 9191,
      "Ġclose": 9192,
      "Ġsex": 9193,
      "rup": 9194,
      "Ġarg": 9195,
      "ä¸ĭè·Į": 9196,
      "åĨħèĴĻåı¤": 9197,
      "åĿļå®ļ": 9198,
      "Ġget": 9199,
      "Films": 9200,
      "ä»£è°¢": 9201,
      "ibl": 9202,
      "æ·±åľ³å¸Ĥ": 9203,
      "çħ§é¡¾": 9204,
      "æĲħ": 9205,
      "ĠTour": 9206,
      "Ġcontribut": 9207,
      "è¡¥åģ¿": 9208,
      "æ¯ħ": 9209,
      "åĨĻä½ľ": 9210,
      "oys": 9211,
      "ç¨»": 9212,
      "æľįåĬ¡ä¸ļ": 9213,
      "ï¼ı": 9214,
      "æ¯ĶèµĽä¸Ń": 9215,
      "Ġve": 9216,
      "shire": 9217,
      "æĪĳåħ¬åı¸": 9218,
      "ĠMa": 9219,
      "åıĳèĤ²": 9220,
      "çļĦå½¢å¼ı": 9221,
      "è¿İæĿ¥": 9222,
      "çľĭè§ģ": 9223,
      "Ġexhib": 9224,
      "åĽĽå¤§": 9225,
      "äººæīįåŁ¹åħ»": 9226,
      "æĿĲæĸĻçļĦ": 9227,
      "Ġinterest": 9228,
      "ä»ĬåĲİ": 9229,
      "å¹¼åĦ¿åĽŃ": 9230,
      "éĩįçļĦ": 9231,
      "ä¾¿æį·": 9232,
      "ĠÂ": 9233,
      "æ¶²ä½ĵ": 9234,
      "oe": 9235,
      "å¸½": 9236,
      "è¿ĩäºĨ": 9237,
      "çĻ»éĻĨ": 9238,
      "äºĮæ¬¡": 9239,
      "è¿Ļä¹Ł": 9240,
      "é©¬æĿ¥è¥¿äºļ": 9241,
      "å¤©çĦ¶æ°Ķ": 9242,
      "pe": 9243,
      "æŁ´æ²¹": 9244,
      "æİ¥ä¸ĭæĿ¥": 9245,
      "ç¼´çº³": 9246,
      "Ġreached": 9247,
      "èµ·éĩį": 9248,
      "ä¸Ģè¾¹": 9249,
      "å¤ļäºº": 9250,
      "Ġloss": 9251,
      "lim": 9252,
      "åİ¦éĹ¨": 9253,
      "ends": 9254,
      "å¹¶æľª": 9255,
      "ç»Ħç»ĩçļĦ": 9256,
      "è®°å¾Ĺ": 9257,
      "ä¸Ńå±±": 9258,
      "å¤§è§Ħæ¨¡": 9259,
      "èĳ¡èĲĦéħĴ": 9260,
      "Ġreb": 9261,
      "ption": 9262,
      "ä¸Ńå°ıä¼ģä¸ļ": 9263,
      "fic": 9264,
      "Ġmethod": 9265,
      "çĶŁæĪĲ": 9266,
      "Ġmissing": 9267,
      "igital": 9268,
      "çłĶåĪ¶": 9269,
      "âĢ¢": 9270,
      "çĨĻ": 9271,
      "rought": 9272,
      "ĠCommittee": 9273,
      "ply": 9274,
      "ä¸Ĭæĺł": 9275,
      "ãĢī": 9276,
      "Ġpot": 9277,
      "è¯ķåĽ¾": 9278,
      "æ²³æµģ": 9279,
      "çī©æĸĻ": 9280,
      "è¿ĽæĶ»": 9281,
      "æłĸ": 9282,
      "åıĳå¸ĥäºĨ": 9283,
      "Ġprem": 9284,
      "par": 9285,
      "åĽ½çİĭ": 9286,
      "æ¸ĹéĢı": 9287,
      "Ġupon": 9288,
      "erve": 9289,
      "ĠWhile": 9290,
      "åĪĨæ³Į": 9291,
      "ç¨³å®ļæĢ§": 9292,
      "å®ŀä¹ł": 9293,
      "Ġfav": 9294,
      "ray": 9295,
      "åĩıè½»": 9296,
      "Ġsyn": 9297,
      "çŀ¬": 9298,
      "wa": 9299,
      "çĹĽèĭ¦": 9300,
      "éŃħåĬĽ": 9301,
      "ç§įåŃĲ": 9302,
      "æĪĳåľ¨": 9303,
      "åĴĮæĬĢæľ¯": 9304,
      "Ġusually": 9305,
      "ĠMod": 9306,
      "Ð¸": 9307,
      "ä¸ĸçķĮæĿ¯": 9308,
      "ogle": 9309,
      "sk": 9310,
      "çĪ±å¥½": 9311,
      "æ°ĳçĶŁ": 9312,
      "åĬŁæķĪ": 9313,
      "Ġprovided": 9314,
      "å¥³å£«": 9315,
      "èĻ¾": 9316,
      "wan": 9317,
      "è¿Ŀè§Ħ": 9318,
      "åıįé¦Ī": 9319,
      "ĠIll": 9320,
      "åıĹæ¬¢è¿İ": 9321,
      "æ¸ħçĲĨ": 9322,
      "èģļçĦ¦": 9323,
      "å±ıå¹ķ": 9324,
      "èŃ¦æĸ¹": 9325,
      "All": 9326,
      "ãĢĪ": 9327,
      "åħ³èĬĤ": 9328,
      "æľ¬å±Ĭ": 9329,
      "ä¼ĺç§ĢçļĦ": 9330,
      "Ġnomin": 9331,
      "çĿĢåĬĽ": 9332,
      "ĠMr": 9333,
      "æŃ¦åĻ¨": 9334,
      "èĩªèº«çļĦ": 9335,
      "Ġcapital": 9336,
      "ĠWales": 9337,
      "Ġaction": 9338,
      "æĪĳå¸Ĥ": 9339,
      "Ġrespect": 9340,
      "éª¤": 9341,
      "Ġmeas": 9342,
      "å¯»æ±Ĥ": 9343,
      "ĠAccording": 9344,
      "ĠGovernment": 9345,
      "ä¼°è®¡": 9346,
      "éĢłæĪĲçļĦ": 9347,
      "Ġap": 9348,
      "çłĶè®¨": 9349,
      "ĠClass": 9350,
      "æ¶Ľ": 9351,
      "ä¸ĵä¸ļæĬĢæľ¯": 9352,
      "speople": 9353,
      "æķ£çĥŃ": 9354,
      "ĠEc": 9355,
      "å·¥ä¼ļ": 9356,
      "Ġhom": 9357,
      "ĠGre": 9358,
      "å¤§äºİ": 9359,
      "å¯¼å¸Ī": 9360,
      "\")": 9361,
      "osing": 9362,
      "åİī": 9363,
      "Ġobject": 9364,
      "Ġknow": 9365,
      "çĭ¼": 9366,
      "å¢ŀåĢ¼": 9367,
      "ises": 9368,
      "oke": 9369,
      "è¿Ļä¸¤": 9370,
      "åıĺå½¢": 9371,
      "è¿ŀéĶģ": 9372,
      "Ġmean": 9373,
      "æĽ¾åľ¨": 9374,
      "éĺŁåĳĺ": 9375,
      "èĭıèģĶ": 9376,
      "çļĦæł¸å¿ĥ": 9377,
      "è¾¾åĪ°äºĨ": 9378,
      "åĲ¬åĪ°": 9379,
      "Ġbroadcast": 9380,
      "ength": 9381,
      "æ¶¦æ»ĳ": 9382,
      "ä¸įå¦Ĥ": 9383,
      "ĠFound": 9384,
      "âĢĿï¼ī": 9385,
      "å®¢è§Ĥ": 9386,
      "è©": 9387,
      "Ġvia": 9388,
      "den": 9389,
      "hold": 9390,
      "Col": 9391,
      "æµģéĢļ": 9392,
      "åİ¿çº§": 9393,
      "ä»¶äºĭ": 9394,
      "çĲĨå·¥": 9395,
      "éĩĩéĽĨ": 9396,
      "åĪ°æĿ¥": 9397,
      "ä¼łæŁĵ": 9398,
      "ulture": 9399,
      "ĠIm": 9400,
      "äºĨè§£åĪ°": 9401,
      "etic": 9402,
      "æ¼Ķè®²": 9403,
      "band": 9404,
      "åī¯ä¹¦è®°": 9405,
      "110": 9406,
      "åĿĩä¸º": 9407,
      "ç³Ĭ": 9408,
      "çĹķ": 9409,
      "ultural": 9410,
      "åįģå¤§": 9411,
      "çļĦè¡Įä¸º": 9412,
      "å¢ĥå¤ĸ": 9413,
      "è¦ģæ³¨æĦı": 9414,
      "Ġmass": 9415,
      "é©¬åħĭ": 9416,
      "Ġplaced": 9417,
      "æľĪèĩ³": 9418,
      "And": 9419,
      "Ġche": 9420,
      "ä¸İåħ¶ä»ĸ": 9421,
      "åħ¬åħĥ": 9422,
      "ĠSome": 9423,
      "Ġ1987": 9424,
      "ĠBrazil": 9425,
      "De": 9426,
      "æ°ĳå®¿": 9427,
      "Ġplant": 9428,
      "æľīéĻĲè´£ä»»": 9429,
      "éĢ¼": 9430,
      "åĽŀæĬ¥": 9431,
      "Ġachie": 9432,
      "çļĦæĹ¶": 9433,
      "çĻ¾å¹´": 9434,
      "å¼ºå¤§": 9435,
      "Ġfar": 9436,
      "Ġ1986": 9437,
      "éĶĤ": 9438,
      "åįķä¸Ģ": 9439,
      "å¯¼ä½ĵ": 9440,
      "åľ¨å¤§": 9441,
      "å¼ĢéĢļ": 9442,
      "gl": 9443,
      "åĪ«çļĦ": 9444,
      "SP": 9445,
      "stitution": 9446,
      "åŁºæľ¬ä¸Ĭ": 9447,
      "è¿ĩåº¦": 9448,
      "åİĨåı²ä¸Ĭ": 9449,
      "éķ¿åº¦": 9450,
      "é¦ĸéĥ½": 9451,
      "ä¼łè¯´": 9452,
      "æĭįåįĸ": 9453,
      "çģ¾å®³": 9454,
      "ä¸Ģåº¦": 9455,
      "è¶ĬæĿ¥è¶Ĭå¤ļ": 9456,
      "æĪĳä»¬åı¯ä»¥": 9457,
      "éªĮæĶ¶": 9458,
      "ä»ĸæĺ¯": 9459,
      "Ġseasons": 9460,
      "ãĢĤ(": 9461,
      "nder": 9462,
      "ĠFlorida": 9463,
      "imb": 9464,
      "ati": 9465,
      "ä¸įå¼Ģ": 9466,
      "éģŃéģĩ": 9467,
      "åŃ¦çļĦ": 9468,
      "èĦĨ": 9469,
      "âĶĢ": 9470,
      "åĲĮäºĭ": 9471,
      "éģĹåĿĢ": 9472,
      "pts": 9473,
      "å¤§åİ¦": 9474,
      "çªĦ": 9475,
      "ä¸ĢåĲĮ": 9476,
      "Ġsaw": 9477,
      "ç²¾å¿ĥ": 9478,
      "Ġspace": 9479,
      "è´¦æĪ·": 9480,
      "ä¸ŃåĽ½äººæ°ĳ": 9481,
      "æĸĩèīº": 9482,
      "known": 9483,
      "å®ĺåĳĺ": 9484,
      "çĽ®å½ķ": 9485,
      "æīįä¼ļ": 9486,
      "orpor": 9487,
      "æĬĵä½ı": 9488,
      "è©¹": 9489,
      "æĹ¥æĻļ": 9490,
      "æĹłéľĢ": 9491,
      "é¸Ń": 9492,
      "Ass": 9493,
      "æĭħå½ĵ": 9494,
      "æ±¡æ³¥": 9495,
      "å¾®çĶŁçī©": 9496,
      "çĲĨè´¢": 9497,
      "ĠPublic": 9498,
      "æĲı": 9499,
      "çĻ¾ä¸ĩ": 9500,
      "ä¾¨": 9501,
      "Ġaccept": 9502,
      "Ġnight": 9503,
      "å¦¥": 9504,
      "çļĦåıĺåĮĸ": 9505,
      "ä¼ĺå¼Ĥ": 9506,
      "æ¸¯åı£": 9507,
      "ä½ĵä¼ļ": 9508,
      "âĸ": 9509,
      "ii": 9510,
      "ĠCongress": 9511,
      "æ°´è´¨": 9512,
      "èĩªä¿¡": 9513,
      "æµªè´¹": 9514,
      "ĠRos": 9515,
      "æľīå®³": 9516,
      "åĨįåº¦": 9517,
      "ĠService": 9518,
      "Go": 9519,
      "medi": 9520,
      "uts": 9521,
      "åįķçĭ¬": 9522,
      "åĵŃ": 9523,
      "Ġ1984": 9524,
      "ç«Ń": 9525,
      "Ġactor": 9526,
      "ĠDen": 9527,
      "ĠCarolina": 9528,
      "ä¸»æµģ": 9529,
      "æĭĽåķĨ": 9530,
      "Ġdraw": 9531,
      "åŁºç¡Ģä¸Ĭ": 9532,
      "ĠLove": 9533,
      "æĦŁåıĹåĪ°": 9534,
      "åĩºåĶ®": 9535,
      "æĽ´å¤§": 9536,
      "è¡£æľį": 9537,
      "èĥĮåĲİ": 9538,
      "åĳ½è¿Ĳ": 9539,
      "ĠHot": 9540,
      "ĠGall": 9541,
      "Ġmur": 9542,
      "IM": 9543,
      "arily": 9544,
      "ç³ĸå°¿": 9545,
      "ä¸Ģå¼ł": 9546,
      "çĽĳå¯Ł": 9547,
      "çļĦç¾İ": 9548,
      "åĽ½äº§": 9549,
      "ipl": 9550,
      "ä¹¦éĿ¢": 9551,
      "uments": 9552,
      "æİ¥æĶ¶": 9553,
      "çĶµç½ĳ": 9554,
      "æŁĲç§į": 9555,
      "èĥ½åľ¨": 9556,
      "æľ¬è´¨": 9557,
      "Ġ1950": 9558,
      "å»¶ç»Ń": 9559,
      "ĠPe": 9560,
      "çļĦç¤¾ä¼ļ": 9561,
      "ç»Łæ²»": 9562,
      "ç«ĭè¶³": 9563,
      "å¥ĸé¡¹": 9564,
      "ĠFin": 9565,
      "åŀĭåı·": 9566,
      "èĬĤå¥ı": 9567,
      "æĺ¯ä¸įæĺ¯": 9568,
      "Ġattended": 9569,
      "TO": 9570,
      "Ġchampionship": 9571,
      "well": 9572,
      "çĻ¾åº¦": 9573,
      "æľīå¤ļ": 9574,
      "éªĮè¯ģ": 9575,
      "çĻ«çĹ": 9576,
      "ç¬¬åħ«": 9577,
      "ç»³": 9578,
      "éĩįç»Ħ": 9579,
      "çĻ«çĹ«": 9580,
      "ĠSeries": 9581,
      "mond": 9582,
      "usp": 9583,
      "æĢ¨": 9584,
      "ĠEmpire": 9585,
      "ĠSir": 9586,
      "è·¯ä¸Ĭ": 9587,
      "åįĹåĮĹ": 9588,
      "oring": 9589,
      "obal": 9590,
      "èģĮä¸ļæķĻèĤ²": 9591,
      "}-": 9592,
      "è¯¥åĽ½": 9593,
      "Se": 9594,
      "Ġpain": 9595,
      "ĠResearch": 9596,
      "äººåı£å¯Ĩåº¦": 9597,
      "çļĦä¸ĸçķĮ": 9598,
      "çŃīé¢ĨåŁŁ": 9599,
      "åıĪç§°": 9600,
      "ä»ĭç»įäºĨ": 9601,
      "yan": 9602,
      "æĪĳä»¬è¦ģ": 9603,
      "åħ¨æĸ°çļĦ": 9604,
      "åĽĽå¹´": 9605,
      "è½¬è½½": 9606,
[...]
